{
  "version": "1.0",
  "truncation": null,
  "padding": null,
  "added_tokens": [
    {
      "id": 0,
      "content": "<|pad|>",
      "single_word": false,
      "lstrip": false,
      "rstrip": false,
      "normalized": false,
      "special": true
    },
    {
      "id": 1,
      "content": "<|unk|>",
      "single_word": false,
      "lstrip": false,
      "rstrip": false,
      "normalized": false,
      "special": true
    },
    {
      "id": 2,
      "content": "<|bos|>",
      "single_word": false,
      "lstrip": false,
      "rstrip": false,
      "normalized": false,
      "special": true
    },
    {
      "id": 3,
      "content": "<|eos|>",
      "single_word": false,
      "lstrip": false,
      "rstrip": false,
      "normalized": false,
      "special": true
    }
  ],
  "normalizer": {
    "type": "NFC"
  },
  "pre_tokenizer": {
    "type": "Metaspace",
    "replacement": "▁",
    "prepend_scheme": "always",
    "split": true
  },
  "post_processor": null,
  "decoder": {
    "type": "Metaspace",
    "replacement": "▁",
    "prepend_scheme": "always",
    "split": true
  },
  "model": {
    "type": "BPE",
    "dropout": null,
    "unk_token": "<|unk|>",
    "continuing_subword_prefix": null,
    "end_of_word_suffix": null,
    "fuse_unk": false,
    "byte_fallback": true,
    "ignore_merges": false,
    "vocab": {
      "<|pad|>": 0,
      "<|unk|>": 1,
      "<|bos|>": 2,
      "<|eos|>": 3,
      "!": 4,
      "\"": 5,
      "#": 6,
      "$": 7,
      "%": 8,
      "&": 9,
      "'": 10,
      "(": 11,
      ")": 12,
      "*": 13,
      "+": 14,
      ",": 15,
      "-": 16,
      ".": 17,
      "/": 18,
      "0": 19,
      "1": 20,
      "2": 21,
      "3": 22,
      "4": 23,
      "5": 24,
      "6": 25,
      "7": 26,
      "8": 27,
      "9": 28,
      ":": 29,
      ";": 30,
      "<": 31,
      "=": 32,
      ">": 33,
      "?": 34,
      "@": 35,
      "A": 36,
      "B": 37,
      "C": 38,
      "D": 39,
      "E": 40,
      "F": 41,
      "G": 42,
      "H": 43,
      "I": 44,
      "J": 45,
      "K": 46,
      "L": 47,
      "M": 48,
      "N": 49,
      "O": 50,
      "P": 51,
      "Q": 52,
      "R": 53,
      "S": 54,
      "T": 55,
      "U": 56,
      "V": 57,
      "W": 58,
      "X": 59,
      "Y": 60,
      "Z": 61,
      "[": 62,
      "\\": 63,
      "]": 64,
      "^": 65,
      "_": 66,
      "`": 67,
      "a": 68,
      "b": 69,
      "c": 70,
      "d": 71,
      "e": 72,
      "f": 73,
      "g": 74,
      "h": 75,
      "i": 76,
      "j": 77,
      "k": 78,
      "l": 79,
      "m": 80,
      "n": 81,
      "o": 82,
      "p": 83,
      "q": 84,
      "r": 85,
      "s": 86,
      "t": 87,
      "u": 88,
      "v": 89,
      "w": 90,
      "x": 91,
      "y": 92,
      "z": 93,
      "{": 94,
      "|": 95,
      "}": 96,
      "~": 97,
      " ": 98,
      "¡": 99,
      "¢": 100,
      "£": 101,
      "¤": 102,
      "¥": 103,
      "¦": 104,
      "§": 105,
      "¨": 106,
      "©": 107,
      "ª": 108,
      "«": 109,
      "¬": 110,
      "®": 111,
      "¯": 112,
      "°": 113,
      "±": 114,
      "²": 115,
      "³": 116,
      "´": 117,
      "µ": 118,
      "¶": 119,
      "·": 120,
      "¸": 121,
      "¹": 122,
      "º": 123,
      "»": 124,
      "¼": 125,
      "½": 126,
      "¾": 127,
      "¿": 128,
      "À": 129,
      "Á": 130,
      "Â": 131,
      "Ã": 132,
      "Ä": 133,
      "Å": 134,
      "Æ": 135,
      "Ç": 136,
      "È": 137,
      "É": 138,
      "Ê": 139,
      "Ë": 140,
      "Í": 141,
      "Ï": 142,
      "Ð": 143,
      "Ñ": 144,
      "Ó": 145,
      "Õ": 146,
      "Ö": 147,
      "×": 148,
      "Ø": 149,
      "Û": 150,
      "Ü": 151,
      "ß": 152,
      "à": 153,
      "á": 154,
      "â": 155,
      "ã": 156,
      "ä": 157,
      "å": 158,
      "æ": 159,
      "ç": 160,
      "è": 161,
      "é": 162,
      "ê": 163,
      "ë": 164,
      "ì": 165,
      "í": 166,
      "î": 167,
      "ï": 168,
      "ð": 169,
      "ñ": 170,
      "ò": 171,
      "ó": 172,
      "ô": 173,
      "õ": 174,
      "ö": 175,
      "÷": 176,
      "ø": 177,
      "ù": 178,
      "ú": 179,
      "û": 180,
      "ü": 181,
      "ý": 182,
      "þ": 183,
      "ÿ": 184,
      "ā": 185,
      "ă": 186,
      "ą": 187,
      "ć": 188,
      "Ĉ": 189,
      "Ċ": 190,
      "ċ": 191,
      "Č": 192,
      "č": 193,
      "ď": 194,
      "Đ": 195,
      "đ": 196,
      "Ē": 197,
      "ē": 198,
      "ė": 199,
      "ę": 200,
      "Ě": 201,
      "ě": 202,
      "Ĝ": 203,
      "ĝ": 204,
      "Ğ": 205,
      "ğ": 206,
      "Ĥ": 207,
      "ĥ": 208,
      "ħ": 209,
      "ĩ": 210,
      "ī": 211,
      "Ĭ": 212,
      "İ": 213,
      "ı": 214,
      "ĳ": 215,
      "ĸ": 216,
      "Ĺ": 217,
      "ĺ": 218,
      "ľ": 219,
      "Ł": 220,
      "ł": 221,
      "ń": 222,
      "Ņ": 223,
      "Ň": 224,
      "ň": 225,
      "ŋ": 226,
      "Ō": 227,
      "ō": 228,
      "ŏ": 229,
      "ő": 230,
      "Œ": 231,
      "œ": 232,
      "ŗ": 233,
      "ř": 234,
      "Ś": 235,
      "ś": 236,
      "ŝ": 237,
      "Ş": 238,
      "ş": 239,
      "Š": 240,
      "š": 241,
      "Ţ": 242,
      "Ť": 243,
      "Ũ": 244,
      "ũ": 245,
      "ū": 246,
      "Ů": 247,
      "ů": 248,
      "ű": 249,
      "Ų": 250,
      "ų": 251,
      "Ÿ": 252,
      "ź": 253,
      "Ż": 254,
      "ż": 255,
      "Ž": 256,
      "ž": 257,
      "Ɛ": 258,
      "ƒ": 259,
      "ƞ": 260,
      "ơ": 261,
      "Ư": 262,
      "ư": 263,
      "Ʒ": 264,
      "Ƽ": 265,
      "ǎ": 266,
      "ǐ": 267,
      "ǒ": 268,
      "Ǜ": 269,
      "ǜ": 270,
      "ǝ": 271,
      "Ǧ": 272,
      "ǩ": 273,
      "Ǯ": 274,
      "ǰ": 275,
      "ǳ": 276,
      "Ƿ": 277,
      "ǹ": 278,
      "ǻ": 279,
      "ǿ": 280,
      "Ȇ": 281,
      "ȋ": 282,
      "Ȍ": 283,
      "ȓ": 284,
      "Ȕ": 285,
      "ș": 286,
      "Ț": 287,
      "Ȝ": 288,
      "ȝ": 289,
      "Ȟ": 290,
      "Ȥ": 291,
      "ȧ": 292,
      "ȷ": 293,
      "ɐ": 294,
      "ɑ": 295,
      "ɔ": 296,
      "ɕ": 297,
      "ɖ": 298,
      "ə": 299,
      "ɛ": 300,
      "ɜ": 301,
      "ɟ": 302,
      "ɡ": 303,
      "ɣ": 304,
      "ɤ": 305,
      "ɨ": 306,
      "ɩ": 307,
      "ɪ": 308,
      "ɫ": 309,
      "ɮ": 310,
      "ɯ": 311,
      "ɱ": 312,
      "ɲ": 313,
      "ɳ": 314,
      "ɴ": 315,
      "ɶ": 316,
      "ɸ": 317,
      "ɽ": 318,
      "ɾ": 319,
      "ʀ": 320,
      "ʁ": 321,
      "ʃ": 322,
      "ʅ": 323,
      "ʊ": 324,
      "ʎ": 325,
      "ʏ": 326,
      "ʒ": 327,
      "ʔ": 328,
      "ʕ": 329,
      "ʟ": 330,
      "ʠ": 331,
      "ʧ": 332,
      "ʭ": 333,
      "ʮ": 334,
      "ʰ": 335,
      "ʱ": 336,
      "ʲ": 337,
      "ʷ": 338,
      "ʹ": 339,
      "ʺ": 340,
      "ʻ": 341,
      "ʼ": 342,
      "ʿ": 343,
      "ˀ": 344,
      "˂": 345,
      "˃": 346,
      "ˆ": 347,
      "ˈ": 348,
      "ˊ": 349,
      "ˋ": 350,
      "ˍ": 351,
      "ː": 352,
      "˒": 353,
      "˓": 354,
      "˖": 355,
      "˘": 356,
      "˙": 357,
      "˚": 358,
      "˜": 359,
      "˝": 360,
      "˟": 361,
      "ˡ": 362,
      "˦": 363,
      "˨": 364,
      "ˮ": 365,
      "˯": 366,
      "˱": 367,
      "˳": 368,
      "˽": 369,
      "̀": 370,
      "́": 371,
      "̂": 372,
      "̃": 373,
      "̄": 374,
      "̆": 375,
      "̈": 376,
      "̊": 377,
      "̎": 378,
      "̝": 379,
      "̠": 380,
      "̣": 381,
      "̪": 382,
      "̯": 383,
      "̵": 384,
      "̶": 385,
      "̹": 386,
      "̽": 387,
      "͂": 388,
      "͉": 389,
      "͊": 390,
      "͍": 391,
      "͎": 392,
      "͑": 393,
      "͕": 394,
      "͗": 395,
      "͢": 396,
      "ͣ": 397,
      "ͤ": 398,
      "ͭ": 399,
      "ͮ": 400,
      "ͯ": 401,
      "ͽ": 402,
      "΄": 403,
      "Ή": 404,
      "Ύ": 405,
      "Α": 406,
      "Β": 407,
      "Γ": 408,
      "Δ": 409,
      "Ε": 410,
      "Ζ": 411,
      "Η": 412,
      "Θ": 413,
      "Ι": 414,
      "Κ": 415,
      "Λ": 416,
      "Μ": 417,
      "Ν": 418,
      "Ο": 419,
      "Π": 420,
      "Ρ": 421,
      "Σ": 422,
      "Τ": 423,
      "Υ": 424,
      "Φ": 425,
      "Χ": 426,
      "Ψ": 427,
      "Ω": 428,
      "ά": 429,
      "έ": 430,
      "ή": 431,
      "ί": 432,
      "α": 433,
      "β": 434,
      "γ": 435,
      "δ": 436,
      "ε": 437,
      "ζ": 438,
      "η": 439,
      "θ": 440,
      "ι": 441,
      "κ": 442,
      "λ": 443,
      "μ": 444,
      "ν": 445,
      "ξ": 446,
      "ο": 447,
      "π": 448,
      "ρ": 449,
      "ς": 450,
      "σ": 451,
      "τ": 452,
      "υ": 453,
      "φ": 454,
      "χ": 455,
      "ψ": 456,
      "ω": 457,
      "ϊ": 458,
      "ϋ": 459,
      "ό": 460,
      "ύ": 461,
      "ώ": 462,
      "ϕ": 463,
      "ϗ": 464,
      "ϙ": 465,
      "Ϧ": 466,
      "ϰ": 467,
      "ϻ": 468,
      "ϼ": 469,
      "Ͽ": 470,
      "Ё": 471,
      "Ђ": 472,
      "Ѓ": 473,
      "Ѕ": 474,
      "І": 475,
      "Њ": 476,
      "Ў": 477,
      "А": 478,
      "Б": 479,
      "В": 480,
      "Г": 481,
      "Д": 482,
      "Е": 483,
      "Ж": 484,
      "З": 485,
      "И": 486,
      "Й": 487,
      "К": 488,
      "Л": 489,
      "М": 490,
      "Н": 491,
      "О": 492,
      "П": 493,
      "Р": 494,
      "С": 495,
      "Т": 496,
      "У": 497,
      "Ф": 498,
      "Х": 499,
      "Ц": 500,
      "Ч": 501,
      "Ш": 502,
      "Щ": 503,
      "Ъ": 504,
      "Ы": 505,
      "Ь": 506,
      "Э": 507,
      "Ю": 508,
      "Я": 509,
      "а": 510,
      "б": 511,
      "в": 512,
      "г": 513,
      "д": 514,
      "е": 515,
      "ж": 516,
      "з": 517,
      "и": 518,
      "й": 519,
      "к": 520,
      "л": 521,
      "м": 522,
      "н": 523,
      "о": 524,
      "п": 525,
      "р": 526,
      "с": 527,
      "т": 528,
      "у": 529,
      "ф": 530,
      "х": 531,
      "ц": 532,
      "ч": 533,
      "ш": 534,
      "щ": 535,
      "ъ": 536,
      "ы": 537,
      "ь": 538,
      "э": 539,
      "ю": 540,
      "я": 541,
      "ѐ": 542,
      "ё": 543,
      "і": 544,
      "ї": 545,
      "ј": 546,
      "љ": 547,
      "њ": 548,
      "Ѧ": 549,
      "Ѩ": 550,
      "Ѫ": 551,
      "ѭ": 552,
      "ѱ": 553,
      "ѵ": 554,
      "Ѽ": 555,
      "Ѿ": 556,
      "҂": 557,
      "҆": 558,
      "҇": 559,
      "҉": 560,
      "Ҏ": 561,
      "ғ": 562,
      "Қ": 563,
      "қ": 564,
      "Ҝ": 565,
      "Ҟ": 566,
      "Ҡ": 567,
      "ү": 568,
      "Ҹ": 569,
      "һ": 570,
      "ҿ": 571,
      "Ӂ": 572,
      "ӂ": 573,
      "Ӈ": 574,
      "Ӎ": 575,
      "ӧ": 576,
      "ө": 577,
      "Ӹ": 578,
      "ԇ": 579,
      "ԉ": 580,
      "ԓ": 581,
      "Ԗ": 582,
      "Ԙ": 583,
      "Ԛ": 584,
      "ԟ": 585,
      "ԡ": 586,
      "ԣ": 587,
      "ԥ": 588,
      "ԩ": 589,
      "Գ": 590,
      "Է": 591,
      "Ը": 592,
      "Ի": 593,
      "Խ": 594,
      "Մ": 595,
      "Ն": 596,
      "Ո": 597,
      "Ռ": 598,
      "Տ": 599,
      "Ց": 600,
      "Ւ": 601,
      "՜": 602,
      "՟": 603,
      "ա": 604,
      "ե": 605,
      "զ": 606,
      "ի": 607,
      "ղ": 608,
      "մ": 609,
      "ն": 610,
      "ո": 611,
      "ր": 612,
      "ց": 613,
      "ւ": 614,
      "ք": 615,
      "֢": 616,
      "֤": 617,
      "֨": 618,
      "֫": 619,
      "֬": 620,
      "֭": 621,
      "֯": 622,
      "ְ": 623,
      "ֱ": 624,
      "ֲ": 625,
      "ֳ": 626,
      "ִ": 627,
      "ֵ": 628,
      "ֶ": 629,
      "ַ": 630,
      "ָ": 631,
      "ֹ": 632,
      "ּ": 633,
      "־": 634,
      "ׁ": 635,
      "א": 636,
      "ב": 637,
      "ג": 638,
      "ד": 639,
      "ה": 640,
      "ו": 641,
      "ח": 642,
      "ט": 643,
      "י": 644,
      "כ": 645,
      "ל": 646,
      "ם": 647,
      "מ": 648,
      "ן": 649,
      "נ": 650,
      "ס": 651,
      "ע": 652,
      "פ": 653,
      "צ": 654,
      "ק": 655,
      "ר": 656,
      "ש": 657,
      "ת": 658,
      "،": 659,
      "؍": 660,
      "؎": 661,
      "ؐ": 662,
      "ؑ": 663,
      "ؖ": 664,
      "ؘ": 665,
      "ء": 666,
      "آ": 667,
      "أ": 668,
      "إ": 669,
      "ئ": 670,
      "ا": 671,
      "ب": 672,
      "ة": 673,
      "ت": 674,
      "ث": 675,
      "ج": 676,
      "ح": 677,
      "خ": 678,
      "د": 679,
      "ذ": 680,
      "ر": 681,
      "ز": 682,
      "س": 683,
      "ش": 684,
      "ص": 685,
      "ض": 686,
      "ط": 687,
      "ظ": 688,
      "ع": 689,
      "غ": 690,
      "ؽ": 691,
      "ؾ": 692,
      "ف": 693,
      "ق": 694,
      "ك": 695,
      "ل": 696,
      "م": 697,
      "ن": 698,
      "ه": 699,
      "و": 700,
      "ى": 701,
      "ي": 702,
      "ٍ": 703,
      "َ": 704,
      "ُ": 705,
      "ِ": 706,
      "ٙ": 707,
      "ٛ": 708,
      "ٝ": 709,
      "٤": 710,
      "٦": 711,
      "٩": 712,
      "٫": 713,
      "٭": 714,
      "ٱ": 715,
      "ٲ": 716,
      "ٳ": 717,
      "پ": 718,
      "ڀ": 719,
      "ڈ": 720,
      "ډ": 721,
      "ڏ": 722,
      "ڐ": 723,
      "ڒ": 724,
      "ږ": 725,
      "ژ": 726,
      "ښ": 727,
      "ڜ": 728,
      "ڝ": 729,
      "ڢ": 730,
      "ک": 731,
      "گ": 732,
      "ڱ": 733,
      "ڳ": 734,
      "ں": 735,
      "ڼ": 736,
      "ڽ": 737,
      "ڿ": 738,
      "ہ": 739,
      "ۇ": 740,
      "ۉ": 741,
      "ی": 742,
      "ێ": 743,
      "ې": 744,
      "ۑ": 745,
      "ە": 746,
      "ۖ": 747,
      "ۗ": 748,
      "ۘ": 749,
      "ۜ": 750,
      "ۡ": 751,
      "ۧ": 752,
      "۩": 753,
      "۰": 754,
      "۱": 755,
      "۲": 756,
      "۳": 757,
      "۴": 758,
      "۵": 759,
      "۶": 760,
      "۷": 761,
      "۸": 762,
      "۹": 763,
      "ۼ": 764,
      "۽": 765,
      "۾": 766,
      "ۿ": 767,
      "܁": 768,
      "܂": 769,
      "܄": 770,
      "܆": 771,
      "ܖ": 772,
      "ܙ": 773,
      "ܛ": 774,
      "ܞ": 775,
      "ܡ": 776,
      "ܢ": 777,
      "ܶ": 778,
      "ܹ": 779,
      "ܿ": 780,
      "ݎ": 781,
      "ݏ": 782,
      "ݕ": 783,
      "ݖ": 784,
      "ݗ": 785,
      "ݘ": 786,
      "ݚ": 787,
      "ݜ": 788,
      "ݝ": 789,
      "ݞ": 790,
      "ݣ": 791,
      "ޏ": 792,
      "ެ": 793,
      "߀": 794,
      "߁": 795,
      "ߊ": 796,
      "ߏ": 797,
      "ߐ": 798,
      "ߑ": 799,
      "ߒ": 800,
      "ߗ": 801,
      "ߘ": 802,
      "ߙ": 803,
      "ߦ": 804,
      "ߩ": 805,
      "߭": 806,
      "߲": 807,
      "߸": 808,
      "߾": 809,
      "ࠂ": 810,
      "ࠇ": 811,
      "ࠎ": 812,
      "ࠚ": 813,
      "ࠛ": 814,
      "ࠝ": 815,
      "ࠥ": 816,
      "ࠨ": 817,
      "࠭": 818,
      "࠹": 819,
      "࠾": 820,
      "ࡀ": 821,
      "ࡃ": 822,
      "ࡉ": 823,
      "ࡔ": 824,
      "ࡖ": 825,
      "ࡗ": 826,
      "ࡢ": 827,
      "ࡧ": 828,
      "ࢥ": 829,
      "ࢯ": 830,
      "ࢼ": 831,
      "ࢾ": 832,
      "ࣃ": 833,
      "ࣟ": 834,
      "ࣤ": 835,
      "ࣥ": 836,
      "ࣦ": 837,
      "ࣨ": 838,
      "ࣲ": 839,
      "ࣵ": 840,
      "ࣶ": 841,
      "ࣹ": 842,
      "ࣺ": 843,
      "ࣻ": 844,
      "ࣽ": 845,
      "ं": 846,
      "आ": 847,
      "उ": 848,
      "ऑ": 849,
      "क": 850,
      "ख": 851,
      "ग": 852,
      "घ": 853,
      "च": 854,
      "ज": 855,
      "ञ": 856,
      "ट": 857,
      "ठ": 858,
      "ड": 859,
      "ण": 860,
      "त": 861,
      "द": 862,
      "ध": 863,
      "न": 864,
      "प": 865,
      "ब": 866,
      "भ": 867,
      "म": 868,
      "य": 869,
      "र": 870,
      "ल": 871,
      "श": 872,
      "स": 873,
      "ह": 874,
      "़": 875,
      "ा": 876,
      "ि": 877,
      "ी": 878,
      "ु": 879,
      "ू": 880,
      "ॄ": 881,
      "े": 882,
      "ो": 883,
      "्": 884,
      "ॕ": 885,
      "ॖ": 886,
      "ॗ": 887,
      "ॢ": 888,
      "ॣ": 889,
      "।": 890,
      "॥": 891,
      "०": 892,
      "२": 893,
      "३": 894,
      "५": 895,
      "६": 896,
      "ॳ": 897,
      "ॴ": 898,
      "ॷ": 899,
      "ॹ": 900,
      "ॼ": 901,
      "ঀ": 902,
      "ং": 903,
      "ঊ": 904,
      "এ": 905,
      "ক": 906,
      "খ": 907,
      "গ": 908,
      "চ": 909,
      "ছ": 910,
      "জ": 911,
      "ট": 912,
      "ঠ": 913,
      "ড": 914,
      "ঢ": 915,
      "ত": 916,
      "দ": 917,
      "প": 918,
      "ব": 919,
      "ম": 920,
      "য": 921,
      "র": 922,
      "ল": 923,
      "শ": 924,
      "স": 925,
      "়": 926,
      "া": 927,
      "ি": 928,
      "ু": 929,
      "ে": 930,
      "ো": 931,
      "্": 932,
      "ৎ": 933,
      "৯": 934,
      "ਖ": 935,
      "ਣ": 936,
      "ਦ": 937,
      "ਮ": 938,
      "ਲ": 939,
      "ਾ": 940,
      "ੀ": 941,
      "੭": 942,
      "ੱ": 943,
      "ଘ": 944,
      "க": 945,
      "த": 946,
      "ம": 947,
      "ர": 948,
      "ற": 949,
      "ழ": 950,
      "ி": 951,
      "ு": 952,
      "ை": 953,
      "்": 954,
      "౪": 955,
      "ಕ": 956,
      "ಡ": 957,
      "ನ": 958,
      "್": 959,
      "ක": 960,
      "ට": 961,
      "ඩ": 962,
      "න": 963,
      "ර": 964,
      "ල": 965,
      "ස": 966,
      "හ": 967,
      "්": 968,
      "ා": 969,
      "ි": 970,
      "ේ": 971,
      "ก": 972,
      "ข": 973,
      "ค": 974,
      "ง": 975,
      "จ": 976,
      "ฉ": 977,
      "ช": 978,
      "ซ": 979,
      "ญ": 980,
      "ฎ": 981,
      "ฐ": 982,
      "ฑ": 983,
      "ฒ": 984,
      "ณ": 985,
      "ด": 986,
      "ต": 987,
      "ถ": 988,
      "ท": 989,
      "ธ": 990,
      "น": 991,
      "บ": 992,
      "ป": 993,
      "ผ": 994,
      "พ": 995,
      "ฟ": 996,
      "ภ": 997,
      "ม": 998,
      "ย": 999,
      "ร": 1000,
      "ล": 1001,
      "ว": 1002,
      "ศ": 1003,
      "ษ": 1004,
      "ส": 1005,
      "ห": 1006,
      "อ": 1007,
      "ฯ": 1008,
      "ะ": 1009,
      "ั": 1010,
      "า": 1011,
      "ำ": 1012,
      "ิ": 1013,
      "ี": 1014,
      "ึ": 1015,
      "ื": 1016,
      "ุ": 1017,
      "ู": 1018,
      "เ": 1019,
      "แ": 1020,
      "โ": 1021,
      "ใ": 1022,
      "ไ": 1023,
      "ๆ": 1024,
      "็": 1025,
      "่": 1026,
      "้": 1027,
      "์": 1028,
      "๏": 1029,
      "๑": 1030,
      "ພ": 1031,
      "ລ": 1032,
      "ວ": 1033,
      "ສ": 1034,
      "າ": 1035,
      "ა": 1036,
      "ბ": 1037,
      "გ": 1038,
      "დ": 1039,
      "ე": 1040,
      "ვ": 1041,
      "თ": 1042,
      "ი": 1043,
      "ლ": 1044,
      "მ": 1045,
      "ნ": 1046,
      "ო": 1047,
      "რ": 1048,
      "ს": 1049,
      "ტ": 1050,
      "უ": 1051,
      "ფ": 1052,
      "ქ": 1053,
      "ღ": 1054,
      "ყ": 1055,
      "ჩ": 1056,
      "ც": 1057,
      "წ": 1058,
      "ხ": 1059,
      "ჱ": 1060,
      "ჲ": 1061,
      "ჳ": 1062,
      "ᄀ": 1063,
      "ᄁ": 1064,
      "ᄂ": 1065,
      "ᄃ": 1066,
      "ᄄ": 1067,
      "ᄅ": 1068,
      "ᄆ": 1069,
      "ᄇ": 1070,
      "ᄈ": 1071,
      "ᄉ": 1072,
      "ᄊ": 1073,
      "ᄋ": 1074,
      "ᄌ": 1075,
      "ᄍ": 1076,
      "ᄎ": 1077,
      "ᄏ": 1078,
      "ᄐ": 1079,
      "ᄒ": 1080,
      "ᄺ": 1081,
      "ᅟ": 1082,
      "ᅠ": 1083,
      "ᅥ": 1084,
      "ᅲ": 1085,
      "ᅳ": 1086,
      "ᅵ": 1087,
      "ᆞ": 1088,
      "ᆢ": 1089,
      "ᆫ": 1090,
      "ᆮ": 1091,
      "ᆯ": 1092,
      "ᆲ": 1093,
      "ᆷ": 1094,
      "ᆸ": 1095,
      "ᆼ": 1096,
      "ᆽ": 1097,
      "ᆿ": 1098,
      "ᇀ": 1099,
      "ᐛ": 1100,
      "ᓚ": 1101,
      "ᕕ": 1102,
      "ᕗ": 1103,
      "᛫": 1104,
      "ខ": 1105,
      "ម": 1106,
      "រ": 1107,
      "ែ": 1108,
      "្": 1109,
      "ᴀ": 1110,
      "ᴅ": 1111,
      "ᴇ": 1112,
      "ᴋ": 1113,
      "ᴌ": 1114,
      "ᴍ": 1115,
      "ᴏ": 1116,
      "ᴗ": 1117,
      "ᴘ": 1118,
      "ᴜ": 1119,
      "ᴠ": 1120,
      "ᴥ": 1121,
      "ᵂ": 1122,
      "ᵇ": 1123,
      "ᵕ": 1124,
      "ᵻ": 1125,
      "ᵿ": 1126,
      "ᶄ": 1127,
      "ᶕ": 1128,
      "ᶗ": 1129,
      "ᶢ": 1130,
      "ᶣ": 1131,
      "ḍ": 1132,
      "ḣ": 1133,
      "ḥ": 1134,
      "ḷ": 1135,
      "ṃ": 1136,
      "ṅ": 1137,
      "ṇ": 1138,
      "ṡ": 1139,
      "Ẑ": 1140,
      "ẑ": 1141,
      "ẟ": 1142,
      "ạ": 1143,
      "Ả": 1144,
      "ả": 1145,
      "ấ": 1146,
      "ầ": 1147,
      "ậ": 1148,
      "ằ": 1149,
      "ẻ": 1150,
      "ẽ": 1151,
      "ế": 1152,
      "ề": 1153,
      "ể": 1154,
      "ễ": 1155,
      "ệ": 1156,
      "ỉ": 1157,
      "ị": 1158,
      "ọ": 1159,
      "ỏ": 1160,
      "ố": 1161,
      "ồ": 1162,
      "ỗ": 1163,
      "ộ": 1164,
      "ớ": 1165,
      "Ờ": 1166,
      "ờ": 1167,
      "ở": 1168,
      "ụ": 1169,
      "ủ": 1170,
      "ứ": 1171,
      "ử": 1172,
      "ữ": 1173,
      "ự": 1174,
      "ỹ": 1175,
      "ἀ": 1176,
      "ἁ": 1177,
      "Ἀ": 1178,
      "ἐ": 1179,
      "ἔ": 1180,
      "ἕ": 1181,
      "Ἐ": 1182,
      "ἡ": 1183,
      "ἱ": 1184,
      "Ἰ": 1185,
      "ὁ": 1186,
      "ὄ": 1187,
      "ὐ": 1188,
      "ὰ": 1189,
      "ὶ": 1190,
      "ὸ": 1191,
      "ᾳ": 1192,
      "ῃ": 1193,
      "ῇ": 1194,
      "ῖ": 1195,
      "ῦ": 1196,
      "ῶ": 1197,
      "​": 1198,
      "‐": 1199,
      "‑": 1200,
      "‒": 1201,
      "–": 1202,
      "—": 1203,
      "―": 1204,
      "‘": 1205,
      "’": 1206,
      "‚": 1207,
      "‛": 1208,
      "“": 1209,
      "”": 1210,
      "„": 1211,
      "‟": 1212,
      "†": 1213,
      "‡": 1214,
      "•": 1215,
      "‣": 1216,
      "․": 1217,
      "‥": 1218,
      "…": 1219,
      "‧": 1220,
      "‰": 1221,
      "′": 1222,
      "″": 1223,
      "‵": 1224,
      "‸": 1225,
      "‹": 1226,
      "›": 1227,
      "※": 1228,
      "‼": 1229,
      "‿": 1230,
      "⁂": 1231,
      "⁃": 1232,
      "⁄": 1233,
      "⁘": 1234,
      "⁴": 1235,
      "⁶": 1236,
      "⁸": 1237,
      "⁺": 1238,
      "⁾": 1239,
      "₁": 1240,
      "₂": 1241,
      "₃": 1242,
      "₄": 1243,
      "₆": 1244,
      "₩": 1245,
      "₪": 1246,
      "€": 1247,
      "₹": 1248,
      "₽": 1249,
      "⃞": 1250,
      "⃣": 1251,
      "℃": 1252,
      "ℇ": 1253,
      "℉": 1254,
      "ℓ": 1255,
      "№": 1256,
      "℠": 1257,
      "℡": 1258,
      "™": 1259,
      "ℯ": 1260,
      "⅓": 1261,
      "⅔": 1262,
      "Ⅰ": 1263,
      "Ⅱ": 1264,
      "Ⅲ": 1265,
      "Ⅳ": 1266,
      "Ⅴ": 1267,
      "Ⅵ": 1268,
      "Ⅶ": 1269,
      "Ⅷ": 1270,
      "Ⅸ": 1271,
      "Ⅹ": 1272,
      "Ⅺ": 1273,
      "Ⅻ": 1274,
      "ⅰ": 1275,
      "ⅱ": 1276,
      "ⅲ": 1277,
      "ⅳ": 1278,
      "ⅴ": 1279,
      "ⅵ": 1280,
      "ⅶ": 1281,
      "ⅷ": 1282,
      "ⅸ": 1283,
      "ⅹ": 1284,
      "←": 1285,
      "↑": 1286,
      "→": 1287,
      "↓": 1288,
      "↔": 1289,
      "↕": 1290,
      "↖": 1291,
      "↗": 1292,
      "↘": 1293,
      "↙": 1294,
      "↚": 1295,
      "↛": 1296,
      "↜": 1297,
      "↝": 1298,
      "↞": 1299,
      "↟": 1300,
      "↠": 1301,
      "↡": 1302,
      "↢": 1303,
      "↣": 1304,
      "↤": 1305,
      "↥": 1306,
      "↦": 1307,
      "↧": 1308,
      "↨": 1309,
      "↩": 1310,
      "↪": 1311,
      "↫": 1312,
      "↬": 1313,
      "↭": 1314,
      "↮": 1315,
      "↯": 1316,
      "↰": 1317,
      "↱": 1318,
      "↲": 1319,
      "↳": 1320,
      "↴": 1321,
      "↶": 1322,
      "↷": 1323,
      "↸": 1324,
      "↹": 1325,
      "↺": 1326,
      "↼": 1327,
      "↽": 1328,
      "↾": 1329,
      "↿": 1330,
      "⇀": 1331,
      "⇁": 1332,
      "⇂": 1333,
      "⇃": 1334,
      "⇄": 1335,
      "⇅": 1336,
      "⇆": 1337,
      "⇇": 1338,
      "⇈": 1339,
      "⇉": 1340,
      "⇊": 1341,
      "⇋": 1342,
      "⇌": 1343,
      "⇍": 1344,
      "⇎": 1345,
      "⇏": 1346,
      "⇐": 1347,
      "⇑": 1348,
      "⇒": 1349,
      "⇔": 1350,
      "⇖": 1351,
      "⇗": 1352,
      "⇘": 1353,
      "⇙": 1354,
      "⇚": 1355,
      "⇛": 1356,
      "⇜": 1357,
      "⇞": 1358,
      "⇟": 1359,
      "⇠": 1360,
      "⇡": 1361,
      "⇢": 1362,
      "⇣": 1363,
      "⇤": 1364,
      "⇥": 1365,
      "⇦": 1366,
      "⇨": 1367,
      "⇩": 1368,
      "⇪": 1369,
      "⇱": 1370,
      "⇲": 1371,
      "∀": 1372,
      "∂": 1373,
      "∃": 1374,
      "∅": 1375,
      "∆": 1376,
      "∇": 1377,
      "∈": 1378,
      "∎": 1379,
      "∑": 1380,
      "−": 1381,
      "∕": 1382,
      "∗": 1383,
      "∘": 1384,
      "∙": 1385,
      "√": 1386,
      "∝": 1387,
      "∞": 1388,
      "∠": 1389,
      "∣": 1390,
      "∥": 1391,
      "∧": 1392,
      "∨": 1393,
      "∩": 1394,
      "∪": 1395,
      "∫": 1396,
      "∬": 1397,
      "∮": 1398,
      "∴": 1399,
      "∵": 1400,
      "∶": 1401,
      "∷": 1402,
      "∼": 1403,
      "∽": 1404,
      "≅": 1405,
      "≈": 1406,
      "≒": 1407,
      "≠": 1408,
      "≡": 1409,
      "≤": 1410,
      "≥": 1411,
      "≧": 1412,
      "≪": 1413,
      "≫": 1414,
      "⊂": 1415,
      "⊃": 1416,
      "⊆": 1417,
      "⊇": 1418,
      "⊊": 1419,
      "⊕": 1420,
      "⊙": 1421,
      "⊚": 1422,
      "⊥": 1423,
      "⊿": 1424,
      "⋅": 1425,
      "⋆": 1426,
      "⋯": 1427,
      "⌄": 1428,
      "⌒": 1429,
      "⌘": 1430,
      "⌜": 1431,
      "⌟": 1432,
      "⌨": 1433,
      "⍚": 1434,
      "⎜": 1435,
      "⏎": 1436,
      "①": 1437,
      "②": 1438,
      "③": 1439,
      "④": 1440,
      "⑤": 1441,
      "⑥": 1442,
      "⑦": 1443,
      "⑧": 1444,
      "⑨": 1445,
      "⑩": 1446,
      "⑪": 1447,
      "⑫": 1448,
      "⑬": 1449,
      "⑭": 1450,
      "⑮": 1451,
      "⑯": 1452,
      "⑰": 1453,
      "⑱": 1454,
      "⑲": 1455,
      "⑳": 1456,
      "⑴": 1457,
      "⑵": 1458,
      "⑶": 1459,
      "⑷": 1460,
      "⑸": 1461,
      "⑹": 1462,
      "⑺": 1463,
      "⑻": 1464,
      "⒜": 1465,
      "⒝": 1466,
      "⒞": 1467,
      "⒟": 1468,
      "⒠": 1469,
      "⒥": 1470,
      "⒧": 1471,
      "⒯": 1472,
      "⒱": 1473,
      "Ⓒ": 1474,
      "Ⓡ": 1475,
      "ⓐ": 1476,
      "ⓑ": 1477,
      "ⓒ": 1478,
      "ⓓ": 1479,
      "ⓔ": 1480,
      "ⓕ": 1481,
      "ⓖ": 1482,
      "ⓗ": 1483,
      "ⓘ": 1484,
      "ⓙ": 1485,
      "ⓚ": 1486,
      "ⓛ": 1487,
      "ⓜ": 1488,
      "ⓝ": 1489,
      "ⓞ": 1490,
      "ⓟ": 1491,
      "ⓠ": 1492,
      "ⓡ": 1493,
      "ⓢ": 1494,
      "ⓣ": 1495,
      "ⓤ": 1496,
      "ⓥ": 1497,
      "ⓦ": 1498,
      "ⓧ": 1499,
      "ⓨ": 1500,
      "⓵": 1501,
      "⓶": 1502,
      "⓷": 1503,
      "⓸": 1504,
      "⓹": 1505,
      "⓺": 1506,
      "⓾": 1507,
      "─": 1508,
      "━": 1509,
      "│": 1510,
      "┃": 1511,
      "┄": 1512,
      "┅": 1513,
      "┆": 1514,
      "┇": 1515,
      "┈": 1516,
      "┉": 1517,
      "┊": 1518,
      "┋": 1519,
      "┌": 1520,
      "┍": 1521,
      "┎": 1522,
      "┏": 1523,
      "┐": 1524,
      "┑": 1525,
      "┒": 1526,
      "┓": 1527,
      "└": 1528,
      "┕": 1529,
      "┖": 1530,
      "┗": 1531,
      "┘": 1532,
      "┙": 1533,
      "┚": 1534,
      "┛": 1535,
      "├": 1536,
      "┝": 1537,
      "┞": 1538,
      "┟": 1539,
      "┠": 1540,
      "┡": 1541,
      "┢": 1542,
      "┣": 1543,
      "┤": 1544,
      "┥": 1545,
      "┦": 1546,
      "┧": 1547,
      "┨": 1548,
      "┩": 1549,
      "┪": 1550,
      "┫": 1551,
      "┬": 1552,
      "┭": 1553,
      "┮": 1554,
      "┯": 1555,
      "┰": 1556,
      "┱": 1557,
      "┲": 1558,
      "┳": 1559,
      "┴": 1560,
      "┵": 1561,
      "┶": 1562,
      "┷": 1563,
      "┸": 1564,
      "┹": 1565,
      "┺": 1566,
      "┻": 1567,
      "┼": 1568,
      "┽": 1569,
      "┾": 1570,
      "┿": 1571,
      "╀": 1572,
      "╁": 1573,
      "╂": 1574,
      "╃": 1575,
      "╄": 1576,
      "╅": 1577,
      "╆": 1578,
      "╇": 1579,
      "╈": 1580,
      "╉": 1581,
      "╊": 1582,
      "╋": 1583,
      "╌": 1584,
      "╍": 1585,
      "╎": 1586,
      "╏": 1587,
      "═": 1588,
      "║": 1589,
      "╒": 1590,
      "╓": 1591,
      "╔": 1592,
      "╕": 1593,
      "╖": 1594,
      "╗": 1595,
      "╘": 1596,
      "╙": 1597,
      "╚": 1598,
      "╛": 1599,
      "╜": 1600,
      "╝": 1601,
      "╞": 1602,
      "╟": 1603,
      "╠": 1604,
      "╡": 1605,
      "╢": 1606,
      "╣": 1607,
      "╤": 1608,
      "╥": 1609,
      "╦": 1610,
      "╧": 1611,
      "╨": 1612,
      "╩": 1613,
      "╪": 1614,
      "╫": 1615,
      "╬": 1616,
      "╭": 1617,
      "╮": 1618,
      "╯": 1619,
      "╰": 1620,
      "╳": 1621,
      "╴": 1622,
      "╹": 1623,
      "▀": 1624,
      "▁": 1625,
      "▂": 1626,
      "▄": 1627,
      "█": 1628,
      "▉": 1629,
      "▌": 1630,
      "▍": 1631,
      "▎": 1632,
      "▐": 1633,
      "░": 1634,
      "▒": 1635,
      "▔": 1636,
      "■": 1637,
      "□": 1638,
      "▢": 1639,
      "▣": 1640,
      "▤": 1641,
      "▥": 1642,
      "▦": 1643,
      "▧": 1644,
      "▨": 1645,
      "▩": 1646,
      "▪": 1647,
      "▫": 1648,
      "▬": 1649,
      "▮": 1650,
      "▯": 1651,
      "▰": 1652,
      "▲": 1653,
      "△": 1654,
      "▴": 1655,
      "▶": 1656,
      "▷": 1657,
      "▸": 1658,
      "▹": 1659,
      "►": 1660,
      "▼": 1661,
      "▽": 1662,
      "▾": 1663,
      "◀": 1664,
      "◁": 1665,
      "◄": 1666,
      "◆": 1667,
      "◇": 1668,
      "◈": 1669,
      "◉": 1670,
      "◊": 1671,
      "○": 1672,
      "◌": 1673,
      "◎": 1674,
      "●": 1675,
      "◐": 1676,
      "◑": 1677,
      "◕": 1678,
      "◘": 1679,
      "◙": 1680,
      "◞": 1681,
      "◟": 1682,
      "◠": 1683,
      "◡": 1684,
      "◢": 1685,
      "◣": 1686,
      "◤": 1687,
      "◥": 1688,
      "◦": 1689,
      "◫": 1690,
      "◯": 1691,
      "◼": 1692,
      "◽": 1693,
      "◾": 1694,
      "☀": 1695,
      "☁": 1696,
      "☂": 1697,
      "☃": 1698,
      "☄": 1699,
      "★": 1700,
      "☆": 1701,
      "☇": 1702,
      "☈": 1703,
      "☊": 1704,
      "☋": 1705,
      "☌": 1706,
      "☍": 1707,
      "☎": 1708,
      "☏": 1709,
      "☐": 1710,
      "☑": 1711,
      "☒": 1712,
      "☓": 1713,
      "☔": 1714,
      "☕": 1715,
      "☚": 1716,
      "☛": 1717,
      "☜": 1718,
      "☝": 1719,
      "☞": 1720,
      "☟": 1721,
      "☠": 1722,
      "☡": 1723,
      "☢": 1724,
      "☣": 1725,
      "☪": 1726,
      "☭": 1727,
      "☯": 1728,
      "☰": 1729,
      "☱": 1730,
      "☲": 1731,
      "☳": 1732,
      "☴": 1733,
      "☵": 1734,
      "☶": 1735,
      "☷": 1736,
      "☺": 1737,
      "☻": 1738,
      "☼": 1739,
      "☽": 1740,
      "☾": 1741,
      "♀": 1742,
      "♂": 1743,
      "♐": 1744,
      "♔": 1745,
      "♕": 1746,
      "♖": 1747,
      "♗": 1748,
      "♘": 1749,
      "♙": 1750,
      "♚": 1751,
      "♛": 1752,
      "♜": 1753,
      "♝": 1754,
      "♞": 1755,
      "♟": 1756,
      "♠": 1757,
      "♡": 1758,
      "♢": 1759,
      "♣": 1760,
      "♤": 1761,
      "♥": 1762,
      "♦": 1763,
      "♧": 1764,
      "♨": 1765,
      "♩": 1766,
      "♪": 1767,
      "♫": 1768,
      "♬": 1769,
      "♭": 1770,
      "♮": 1771,
      "♯": 1772,
      "⚘": 1773,
      "⚜": 1774,
      "⚠": 1775,
      "⚪": 1776,
      "⚫": 1777,
      "⚾": 1778,
      "⛔": 1779,
      "⛦": 1780,
      "⛧": 1781,
      "✁": 1782,
      "✂": 1783,
      "✃": 1784,
      "✄": 1785,
      "✅": 1786,
      "✆": 1787,
      "✈": 1788,
      "✉": 1789,
      "✊": 1790,
      "✋": 1791,
      "✌": 1792,
      "✍": 1793,
      "✎": 1794,
      "✏": 1795,
      "✐": 1796,
      "✑": 1797,
      "✒": 1798,
      "✓": 1799,
      "✔": 1800,
      "✕": 1801,
      "✖": 1802,
      "✗": 1803,
      "✘": 1804,
      "✙": 1805,
      "✚": 1806,
      "✛": 1807,
      "✝": 1808,
      "✠": 1809,
      "✡": 1810,
      "✣": 1811,
      "✤": 1812,
      "✥": 1813,
      "✦": 1814,
      "✧": 1815,
      "✨": 1816,
      "✪": 1817,
      "✭": 1818,
      "✯": 1819,
      "✱": 1820,
      "✲": 1821,
      "✴": 1822,
      "✶": 1823,
      "✽": 1824,
      "✿": 1825,
      "❀": 1826,
      "❁": 1827,
      "❂": 1828,
      "❃": 1829,
      "❄": 1830,
      "❈": 1831,
      "❉": 1832,
      "❊": 1833,
      "❌": 1834,
      "❍": 1835,
      "❎": 1836,
      "❏": 1837,
      "❐": 1838,
      "❑": 1839,
      "❒": 1840,
      "❕": 1841,
      "❖": 1842,
      "❗": 1843,
      "❚": 1844,
      "❛": 1845,
      "❜": 1846,
      "❝": 1847,
      "❞": 1848,
      "❢": 1849,
      "❣": 1850,
      "❤": 1851,
      "❥": 1852,
      "❦": 1853,
      "❧": 1854,
      "❶": 1855,
      "❷": 1856,
      "❸": 1857,
      "❹": 1858,
      "❺": 1859,
      "❻": 1860,
      "❼": 1861,
      "❽": 1862,
      "❾": 1863,
      "➀": 1864,
      "➁": 1865,
      "➂": 1866,
      "➃": 1867,
      "➄": 1868,
      "➅": 1869,
      "➆": 1870,
      "➇": 1871,
      "➈": 1872,
      "➉": 1873,
      "➊": 1874,
      "➋": 1875,
      "➌": 1876,
      "➍": 1877,
      "➎": 1878,
      "➏": 1879,
      "➐": 1880,
      "➑": 1881,
      "➒": 1882,
      "➓": 1883,
      "➔": 1884,
      "➖": 1885,
      "➚": 1886,
      "➛": 1887,
      "➜": 1888,
      "➠": 1889,
      "➡": 1890,
      "➢": 1891,
      "➤": 1892,
      "➥": 1893,
      "➦": 1894,
      "➧": 1895,
      "➨": 1896,
      "➪": 1897,
      "➰": 1898,
      "➲": 1899,
      "➳": 1900,
      "➴": 1901,
      "➵": 1902,
      "➶": 1903,
      "➷": 1904,
      "➸": 1905,
      "➹": 1906,
      "➺": 1907,
      "➻": 1908,
      "➼": 1909,
      "➽": 1910,
      "⟪": 1911,
      "⟫": 1912,
      "⟶": 1913,
      "⟷": 1914,
      "⠀": 1915,
      "⤑": 1916,
      "⤵": 1917,
      "⦁": 1918,
      "⦾": 1919,
      "⬅": 1920,
      "⬆": 1921,
      "⬇": 1922,
      "⭐": 1923,
      "⭕": 1924,
      "ⲉ": 1925,
      "ⲏ": 1926,
      "ⲓ": 1927,
      "ⲕ": 1928,
      "Ⲙ": 1929,
      "ⲙ": 1930,
      "ⲛ": 1931,
      "ⲣ": 1932,
      "ⲧ": 1933,
      "ⲭ": 1934,
      "⼗": 1935,
      "、": 1936,
      "。": 1937,
      "〃": 1938,
      "々": 1939,
      "〇": 1940,
      "〈": 1941,
      "〉": 1942,
      "《": 1943,
      "》": 1944,
      "「": 1945,
      "」": 1946,
      "『": 1947,
      "』": 1948,
      "【": 1949,
      "】": 1950,
      "〒": 1951,
      "〓": 1952,
      "〔": 1953,
      "〕": 1954,
      "〖": 1955,
      "〗": 1956,
      "〘": 1957,
      "〙": 1958,
      "〜": 1959,
      "〝": 1960,
      "〞": 1961,
      "〠": 1962,
      "〤": 1963,
      "〬": 1964,
      "〮": 1965,
      "〰": 1966,
      "ぁ": 1967,
      "あ": 1968,
      "ぃ": 1969,
      "い": 1970,
      "ぅ": 1971,
      "う": 1972,
      "ぇ": 1973,
      "え": 1974,
      "ぉ": 1975,
      "お": 1976,
      "か": 1977,
      "が": 1978,
      "き": 1979,
      "ぎ": 1980,
      "く": 1981,
      "ぐ": 1982,
      "け": 1983,
      "げ": 1984,
      "こ": 1985,
      "ご": 1986,
      "さ": 1987,
      "ざ": 1988,
      "し": 1989,
      "じ": 1990,
      "す": 1991,
      "ず": 1992,
      "せ": 1993,
      "ぜ": 1994,
      "そ": 1995,
      "ぞ": 1996,
      "た": 1997,
      "だ": 1998,
      "ち": 1999,
      "ぢ": 2000,
      "っ": 2001,
      "つ": 2002,
      "づ": 2003,
      "て": 2004,
      "で": 2005,
      "と": 2006,
      "ど": 2007,
      "な": 2008,
      "に": 2009,
      "ぬ": 2010,
      "ね": 2011,
      "の": 2012,
      "は": 2013,
      "ば": 2014,
      "ぱ": 2015,
      "ひ": 2016,
      "び": 2017,
      "ぴ": 2018,
      "ふ": 2019,
      "ぶ": 2020,
      "ぷ": 2021,
      "へ": 2022,
      "べ": 2023,
      "ぺ": 2024,
      "ほ": 2025,
      "ぼ": 2026,
      "ぽ": 2027,
      "ま": 2028,
      "み": 2029,
      "む": 2030,
      "め": 2031,
      "も": 2032,
      "ゃ": 2033,
      "や": 2034,
      "ゅ": 2035,
      "ゆ": 2036,
      "ょ": 2037,
      "よ": 2038,
      "ら": 2039,
      "り": 2040,
      "る": 2041,
      "れ": 2042,
      "ろ": 2043,
      "ゎ": 2044,
      "わ": 2045,
      "ゐ": 2046,
      "ゑ": 2047,
      "を": 2048,
      "ん": 2049,
      "ゝ": 2050,
      "ァ": 2051,
      "ア": 2052,
      "ィ": 2053,
      "イ": 2054,
      "ゥ": 2055,
      "ウ": 2056,
      "ェ": 2057,
      "エ": 2058,
      "ォ": 2059,
      "オ": 2060,
      "カ": 2061,
      "ガ": 2062,
      "キ": 2063,
      "ギ": 2064,
      "ク": 2065,
      "グ": 2066,
      "ケ": 2067,
      "ゲ": 2068,
      "コ": 2069,
      "ゴ": 2070,
      "サ": 2071,
      "ザ": 2072,
      "シ": 2073,
      "ジ": 2074,
      "ス": 2075,
      "ズ": 2076,
      "セ": 2077,
      "ゼ": 2078,
      "ソ": 2079,
      "ゾ": 2080,
      "タ": 2081,
      "ダ": 2082,
      "チ": 2083,
      "ヂ": 2084,
      "ッ": 2085,
      "ツ": 2086,
      "テ": 2087,
      "デ": 2088,
      "ト": 2089,
      "ド": 2090,
      "ナ": 2091,
      "ニ": 2092,
      "ヌ": 2093,
      "ネ": 2094,
      "ノ": 2095,
      "ハ": 2096,
      "バ": 2097,
      "パ": 2098,
      "ヒ": 2099,
      "ビ": 2100,
      "ピ": 2101,
      "フ": 2102,
      "ブ": 2103,
      "プ": 2104,
      "ヘ": 2105,
      "ベ": 2106,
      "ペ": 2107,
      "ホ": 2108,
      "ボ": 2109,
      "ポ": 2110,
      "マ": 2111,
      "ミ": 2112,
      "ム": 2113,
      "メ": 2114,
      "モ": 2115,
      "ャ": 2116,
      "ヤ": 2117,
      "ュ": 2118,
      "ユ": 2119,
      "ョ": 2120,
      "ヨ": 2121,
      "ラ": 2122,
      "リ": 2123,
      "ル": 2124,
      "レ": 2125,
      "ロ": 2126,
      "ヮ": 2127,
      "ワ": 2128,
      "ヲ": 2129,
      "ン": 2130,
      "ヴ": 2131,
      "ヵ": 2132,
      "ヶ": 2133,
      "・": 2134,
      "ー": 2135,
      "ヽ": 2136,
      "ヾ": 2137,
      "ㄍ": 2138,
      "ㄏ": 2139,
      "ㄚ": 2140,
      "ㄨ": 2141,
      "ㄱ": 2142,
      "ㄲ": 2143,
      "ㄳ": 2144,
      "ㄴ": 2145,
      "ㄶ": 2146,
      "ㄷ": 2147,
      "ㄸ": 2148,
      "ㄹ": 2149,
      "ㄻ": 2150,
      "ㅁ": 2151,
      "ㅂ": 2152,
      "ㅃ": 2153,
      "ㅄ": 2154,
      "ㅅ": 2155,
      "ㅆ": 2156,
      "ㅇ": 2157,
      "ㅈ": 2158,
      "ㅉ": 2159,
      "ㅊ": 2160,
      "ㅋ": 2161,
      "ㅌ": 2162,
      "ㅍ": 2163,
      "ㅎ": 2164,
      "ㅏ": 2165,
      "ㅐ": 2166,
      "ㅑ": 2167,
      "ㅒ": 2168,
      "ㅓ": 2169,
      "ㅔ": 2170,
      "ㅕ": 2171,
      "ㅖ": 2172,
      "ㅗ": 2173,
      "ㅘ": 2174,
      "ㅙ": 2175,
      "ㅚ": 2176,
      "ㅛ": 2177,
      "ㅜ": 2178,
      "ㅝ": 2179,
      "ㅞ": 2180,
      "ㅟ": 2181,
      "ㅠ": 2182,
      "ㅡ": 2183,
      "ㅢ": 2184,
      "ㅣ": 2185,
      "ㅤ": 2186,
      "ㅱ": 2187,
      "ㅽ": 2188,
      "ㅿ": 2189,
      "ㆀ": 2190,
      "ㆍ": 2191,
      "㈀": 2192,
      "㈁": 2193,
      "㈇": 2194,
      "㈎": 2195,
      "㈏": 2196,
      "㈐": 2197,
      "㈑": 2198,
      "㈒": 2199,
      "㈓": 2200,
      "㈔": 2201,
      "㈖": 2202,
      "㈛": 2203,
      "㈜": 2204,
      "㈱": 2205,
      "㈹": 2206,
      "㈽": 2207,
      "㉒": 2208,
      "㉗": 2209,
      "㉠": 2210,
      "㉡": 2211,
      "㉢": 2212,
      "㉣": 2213,
      "㉤": 2214,
      "㉥": 2215,
      "㉦": 2216,
      "㉧": 2217,
      "㉨": 2218,
      "㉮": 2219,
      "㉯": 2220,
      "㉰": 2221,
      "㉱": 2222,
      "㉲": 2223,
      "㉳": 2224,
      "㉴": 2225,
      "㉵": 2226,
      "㉶": 2227,
      "㉷": 2228,
      "㉸": 2229,
      "㉹": 2230,
      "㉺": 2231,
      "㉻": 2232,
      "㉾": 2233,
      "㉿": 2234,
      "㊒": 2235,
      "㊘": 2236,
      "㊡": 2237,
      "㊣": 2238,
      "㊥": 2239,
      "㊬": 2240,
      "㊯": 2241,
      "㊰": 2242,
      "㋗": 2243,
      "㋝": 2244,
      "㋫": 2245,
      "㋭": 2246,
      "㋯": 2247,
      "㋱": 2248,
      "㋴": 2249,
      "㋺": 2250,
      "㍿": 2251,
      "㎂": 2252,
      "㎃": 2253,
      "㎉": 2254,
      "㎊": 2255,
      "㎍": 2256,
      "㎎": 2257,
      "㎏": 2258,
      "㎐": 2259,
      "㎑": 2260,
      "㎒": 2261,
      "㎓": 2262,
      "㎕": 2263,
      "㎖": 2264,
      "㎗": 2265,
      "㎘": 2266,
      "㎙": 2267,
      "㎚": 2268,
      "㎛": 2269,
      "㎜": 2270,
      "㎝": 2271,
      "㎞": 2272,
      "㎟": 2273,
      "㎠": 2274,
      "㎡": 2275,
      "㎢": 2276,
      "㎣": 2277,
      "㎤": 2278,
      "㎥": 2279,
      "㎦": 2280,
      "㎧": 2281,
      "㎨": 2282,
      "㎩": 2283,
      "㎫": 2284,
      "㎬": 2285,
      "㎰": 2286,
      "㎲": 2287,
      "㎳": 2288,
      "㎸": 2289,
      "㎾": 2290,
      "㎿": 2291,
      "㏂": 2292,
      "㏃": 2293,
      "㏄": 2294,
      "㏅": 2295,
      "㏇": 2296,
      "㏈": 2297,
      "㏉": 2298,
      "㏊": 2299,
      "㏘": 2300,
      "㏜": 2301,
      "㕧": 2302,
      "㝵": 2303,
      "㷁": 2304,
      "䎸": 2305,
      "䐖": 2306,
      "䦙": 2307,
      "一": 2308,
      "丁": 2309,
      "七": 2310,
      "万": 2311,
      "丈": 2312,
      "三": 2313,
      "上": 2314,
      "下": 2315,
      "不": 2316,
      "与": 2317,
      "丑": 2318,
      "专": 2319,
      "且": 2320,
      "世": 2321,
      "丘": 2322,
      "丙": 2323,
      "业": 2324,
      "丛": 2325,
      "东": 2326,
      "丝": 2327,
      "丞": 2328,
      "丟": 2329,
      "両": 2330,
      "丢": 2331,
      "两": 2332,
      "严": 2333,
      "並": 2334,
      "个": 2335,
      "中": 2336,
      "丰": 2337,
      "串": 2338,
      "临": 2339,
      "丶": 2340,
      "丸": 2341,
      "丹": 2342,
      "为": 2343,
      "主": 2344,
      "丼": 2345,
      "丽": 2346,
      "举": 2347,
      "丿": 2348,
      "乁": 2349,
      "乃": 2350,
      "久": 2351,
      "么": 2352,
      "义": 2353,
      "之": 2354,
      "乌": 2355,
      "乎": 2356,
      "乐": 2357,
      "乗": 2358,
      "乘": 2359,
      "乙": 2360,
      "九": 2361,
      "乞": 2362,
      "也": 2363,
      "习": 2364,
      "乡": 2365,
      "书": 2366,
      "乭": 2367,
      "买": 2368,
      "乱": 2369,
      "乳": 2370,
      "乾": 2371,
      "亀": 2372,
      "亂": 2373,
      "了": 2374,
      "予": 2375,
      "争": 2376,
      "事": 2377,
      "二": 2378,
      "于": 2379,
      "云": 2380,
      "互": 2381,
      "五": 2382,
      "井": 2383,
      "亚": 2384,
      "些": 2385,
      "亜": 2386,
      "亞": 2387,
      "亡": 2388,
      "亢": 2389,
      "交": 2390,
      "亥": 2391,
      "亦": 2392,
      "产": 2393,
      "亨": 2394,
      "享": 2395,
      "京": 2396,
      "亭": 2397,
      "亮": 2398,
      "亲": 2399,
      "亳": 2400,
      "亶": 2401,
      "人": 2402,
      "亿": 2403,
      "什": 2404,
      "仁": 2405,
      "仄": 2406,
      "仅": 2407,
      "仇": 2408,
      "今": 2409,
      "介": 2410,
      "仍": 2411,
      "从": 2412,
      "仏": 2413,
      "仓": 2414,
      "仔": 2415,
      "仕": 2416,
      "他": 2417,
      "仗": 2418,
      "付": 2419,
      "仙": 2420,
      "代": 2421,
      "令": 2422,
      "以": 2423,
      "仪": 2424,
      "们": 2425,
      "仮": 2426,
      "仰": 2427,
      "仲": 2428,
      "件": 2429,
      "价": 2430,
      "仹": 2431,
      "任": 2432,
      "份": 2433,
      "仿": 2434,
      "企": 2435,
      "伊": 2436,
      "伍": 2437,
      "伎": 2438,
      "伏": 2439,
      "伐": 2440,
      "休": 2441,
      "众": 2442,
      "优": 2443,
      "伙": 2444,
      "会": 2445,
      "伝": 2446,
      "伟": 2447,
      "传": 2448,
      "伤": 2449,
      "伦": 2450,
      "伪": 2451,
      "伯": 2452,
      "估": 2453,
      "伴": 2454,
      "伶": 2455,
      "伸": 2456,
      "伺": 2457,
      "似": 2458,
      "伽": 2459,
      "佃": 2460,
      "但": 2461,
      "佈": 2462,
      "位": 2463,
      "低": 2464,
      "住": 2465,
      "佐": 2466,
      "佑": 2467,
      "体": 2468,
      "何": 2469,
      "佖": 2470,
      "余": 2471,
      "佚": 2472,
      "佛": 2473,
      "作": 2474,
      "你": 2475,
      "佩": 2476,
      "佰": 2477,
      "佳": 2478,
      "併": 2479,
      "佺": 2480,
      "佾": 2481,
      "使": 2482,
      "侃": 2483,
      "來": 2484,
      "侈": 2485,
      "例": 2486,
      "侍": 2487,
      "侖": 2488,
      "侗": 2489,
      "供": 2490,
      "依": 2491,
      "侠": 2492,
      "価": 2493,
      "侣": 2494,
      "侧": 2495,
      "侮": 2496,
      "侯": 2497,
      "侵": 2498,
      "侶": 2499,
      "便": 2500,
      "係": 2501,
      "促": 2502,
      "俄": 2503,
      "俊": 2504,
      "俎": 2505,
      "俐": 2506,
      "俑": 2507,
      "俔": 2508,
      "俗": 2509,
      "俛": 2510,
      "保": 2511,
      "俞": 2512,
      "俠": 2513,
      "信": 2514,
      "修": 2515,
      "俯": 2516,
      "俱": 2517,
      "俳": 2518,
      "俸": 2519,
      "俺": 2520,
      "倂": 2521,
      "倉": 2522,
      "個": 2523,
      "倍": 2524,
      "們": 2525,
      "倒": 2526,
      "倖": 2527,
      "候": 2528,
      "倚": 2529,
      "借": 2530,
      "倡": 2531,
      "倣": 2532,
      "値": 2533,
      "倧": 2534,
      "倩": 2535,
      "倪": 2536,
      "倫": 2537,
      "倭": 2538,
      "倶": 2539,
      "债": 2540,
      "倻": 2541,
      "值": 2542,
      "偃": 2543,
      "假": 2544,
      "偈": 2545,
      "偉": 2546,
      "偏": 2547,
      "偕": 2548,
      "做": 2549,
      "停": 2550,
      "健": 2551,
      "側": 2552,
      "偵": 2553,
      "偶": 2554,
      "偸": 2555,
      "偽": 2556,
      "偿": 2557,
      "傀": 2558,
      "傅": 2559,
      "傍": 2560,
      "傑": 2561,
      "傘": 2562,
      "備": 2563,
      "傢": 2564,
      "傣": 2565,
      "储": 2566,
      "傩": 2567,
      "催": 2568,
      "傭": 2569,
      "傲": 2570,
      "傳": 2571,
      "債": 2572,
      "傶": 2573,
      "傷": 2574,
      "傾": 2575,
      "僅": 2576,
      "僉": 2577,
      "僊": 2578,
      "働": 2579,
      "像": 2580,
      "僑": 2581,
      "僕": 2582,
      "僖": 2583,
      "僚": 2584,
      "僞": 2585,
      "僥": 2586,
      "僧": 2587,
      "價": 2588,
      "儀": 2589,
      "儁": 2590,
      "億": 2591,
      "儉": 2592,
      "儒": 2593,
      "儔": 2594,
      "儕": 2595,
      "儘": 2596,
      "償": 2597,
      "優": 2598,
      "儲": 2599,
      "儺": 2600,
      "儼": 2601,
      "儿": 2602,
      "兀": 2603,
      "允": 2604,
      "元": 2605,
      "兄": 2606,
      "充": 2607,
      "兆": 2608,
      "兇": 2609,
      "先": 2610,
      "光": 2611,
      "克": 2612,
      "兌": 2613,
      "免": 2614,
      "兎": 2615,
      "児": 2616,
      "兑": 2617,
      "兒": 2618,
      "党": 2619,
      "兢": 2620,
      "入": 2621,
      "內": 2622,
      "全": 2623,
      "兩": 2624,
      "兪": 2625,
      "八": 2626,
      "公": 2627,
      "六": 2628,
      "兮": 2629,
      "兰": 2630,
      "共": 2631,
      "关": 2632,
      "兴": 2633,
      "兵": 2634,
      "其": 2635,
      "具": 2636,
      "典": 2637,
      "养": 2638,
      "兼": 2639,
      "兽": 2640,
      "冀": 2641,
      "内": 2642,
      "円": 2643,
      "冊": 2644,
      "再": 2645,
      "冒": 2646,
      "冕": 2647,
      "写": 2648,
      "军": 2649,
      "农": 2650,
      "冠": 2651,
      "冥": 2652,
      "冬": 2653,
      "冯": 2654,
      "冰": 2655,
      "决": 2656,
      "冴": 2657,
      "况": 2658,
      "冶": 2659,
      "冷": 2660,
      "净": 2661,
      "凄": 2662,
      "准": 2663,
      "凉": 2664,
      "凋": 2665,
      "凌": 2666,
      "凍": 2667,
      "减": 2668,
      "凛": 2669,
      "凝": 2670,
      "几": 2671,
      "凡": 2672,
      "凤": 2673,
      "処": 2674,
      "凭": 2675,
      "凯": 2676,
      "凰": 2677,
      "凱": 2678,
      "凳": 2679,
      "凶": 2680,
      "凸": 2681,
      "凹": 2682,
      "出": 2683,
      "击": 2684,
      "函": 2685,
      "刀": 2686,
      "刁": 2687,
      "刃": 2688,
      "分": 2689,
      "切": 2690,
      "刈": 2691,
      "刊": 2692,
      "刋": 2693,
      "刎": 2694,
      "刑": 2695,
      "划": 2696,
      "列": 2697,
      "刘": 2698,
      "则": 2699,
      "刚": 2700,
      "创": 2701,
      "初": 2702,
      "删": 2703,
      "判": 2704,
      "別": 2705,
      "利": 2706,
      "刪": 2707,
      "别": 2708,
      "刮": 2709,
      "到": 2710,
      "制": 2711,
      "刷": 2712,
      "券": 2713,
      "刹": 2714,
      "刺": 2715,
      "刻": 2716,
      "剂": 2717,
      "則": 2718,
      "削": 2719,
      "剋": 2720,
      "前": 2721,
      "剖": 2722,
      "剛": 2723,
      "剝": 2724,
      "剣": 2725,
      "剤": 2726,
      "剧": 2727,
      "剩": 2728,
      "剪": 2729,
      "剮": 2730,
      "副": 2731,
      "剰": 2732,
      "割": 2733,
      "創": 2734,
      "剿": 2735,
      "劃": 2736,
      "劇": 2737,
      "劈": 2738,
      "劉": 2739,
      "劊": 2740,
      "劍": 2741,
      "劑": 2742,
      "劒": 2743,
      "力": 2744,
      "办": 2745,
      "功": 2746,
      "加": 2747,
      "务": 2748,
      "劣": 2749,
      "动": 2750,
      "助": 2751,
      "努": 2752,
      "劫": 2753,
      "励": 2754,
      "劲": 2755,
      "劳": 2756,
      "労": 2757,
      "効": 2758,
      "劾": 2759,
      "势": 2760,
      "勁": 2761,
      "勃": 2762,
      "勅": 2763,
      "勇": 2764,
      "勉": 2765,
      "勋": 2766,
      "勐": 2767,
      "勒": 2768,
      "動": 2769,
      "勖": 2770,
      "勘": 2771,
      "務": 2772,
      "勛": 2773,
      "勝": 2774,
      "勞": 2775,
      "募": 2776,
      "勢": 2777,
      "勤": 2778,
      "勧": 2779,
      "勲": 2780,
      "勳": 2781,
      "勸": 2782,
      "勺": 2783,
      "勾": 2784,
      "勿": 2785,
      "匂": 2786,
      "匃": 2787,
      "包": 2788,
      "匈": 2789,
      "匕": 2790,
      "化": 2791,
      "北": 2792,
      "匙": 2793,
      "匠": 2794,
      "匡": 2795,
      "匣": 2796,
      "匪": 2797,
      "匯": 2798,
      "匱": 2799,
      "匹": 2800,
      "区": 2801,
      "医": 2802,
      "匿": 2803,
      "區": 2804,
      "十": 2805,
      "千": 2806,
      "升": 2807,
      "午": 2808,
      "卉": 2809,
      "半": 2810,
      "卍": 2811,
      "华": 2812,
      "协": 2813,
      "卐": 2814,
      "卑": 2815,
      "卒": 2816,
      "卓": 2817,
      "協": 2818,
      "单": 2819,
      "南": 2820,
      "単": 2821,
      "博": 2822,
      "卜": 2823,
      "卞": 2824,
      "占": 2825,
      "卡": 2826,
      "卦": 2827,
      "卨": 2828,
      "卫": 2829,
      "卯": 2830,
      "印": 2831,
      "危": 2832,
      "即": 2833,
      "却": 2834,
      "卵": 2835,
      "卷": 2836,
      "卻": 2837,
      "卽": 2838,
      "卿": 2839,
      "厂": 2840,
      "厄": 2841,
      "厅": 2842,
      "历": 2843,
      "压": 2844,
      "厖": 2845,
      "厚": 2846,
      "厝": 2847,
      "原": 2848,
      "厥": 2849,
      "厦": 2850,
      "厨": 2851,
      "厭": 2852,
      "厯": 2853,
      "厲": 2854,
      "厳": 2855,
      "去": 2856,
      "县": 2857,
      "参": 2858,
      "參": 2859,
      "又": 2860,
      "叉": 2861,
      "及": 2862,
      "友": 2863,
      "双": 2864,
      "反": 2865,
      "収": 2866,
      "发": 2867,
      "叔": 2868,
      "取": 2869,
      "受": 2870,
      "变": 2871,
      "叙": 2872,
      "叛": 2873,
      "叡": 2874,
      "叢": 2875,
      "口": 2876,
      "古": 2877,
      "句": 2878,
      "另": 2879,
      "叩": 2880,
      "只": 2881,
      "叫": 2882,
      "召": 2883,
      "叭": 2884,
      "可": 2885,
      "台": 2886,
      "叱": 2887,
      "史": 2888,
      "右": 2889,
      "叶": 2890,
      "号": 2891,
      "司": 2892,
      "吃": 2893,
      "各": 2894,
      "合": 2895,
      "吉": 2896,
      "同": 2897,
      "名": 2898,
      "后": 2899,
      "吏": 2900,
      "吐": 2901,
      "向": 2902,
      "吓": 2903,
      "吗": 2904,
      "君": 2905,
      "吟": 2906,
      "吠": 2907,
      "否": 2908,
      "吧": 2909,
      "含": 2910,
      "听": 2911,
      "启": 2912,
      "吳": 2913,
      "吴": 2914,
      "吵": 2915,
      "吸": 2916,
      "吹": 2917,
      "吻": 2918,
      "吼": 2919,
      "吾": 2920,
      "呂": 2921,
      "呆": 2922,
      "呈": 2923,
      "告": 2924,
      "呑": 2925,
      "员": 2926,
      "呢": 2927,
      "周": 2928,
      "呪": 2929,
      "味": 2930,
      "呵": 2931,
      "呻": 2932,
      "呼": 2933,
      "命": 2934,
      "咀": 2935,
      "咄": 2936,
      "咆": 2937,
      "咋": 2938,
      "和": 2939,
      "咖": 2940,
      "咤": 2941,
      "咥": 2942,
      "咫": 2943,
      "咲": 2944,
      "咳": 2945,
      "咷": 2946,
      "咸": 2947,
      "咽": 2948,
      "哀": 2949,
      "品": 2950,
      "哇": 2951,
      "哈": 2952,
      "哉": 2953,
      "响": 2954,
      "員": 2955,
      "哥": 2956,
      "哦": 2957,
      "哩": 2958,
      "哪": 2959,
      "哭": 2960,
      "哮": 2961,
      "哲": 2962,
      "哺": 2963,
      "唄": 2964,
      "唆": 2965,
      "唇": 2966,
      "唐": 2967,
      "唔": 2968,
      "售": 2969,
      "唯": 2970,
      "唱": 2971,
      "唾": 2972,
      "啄": 2973,
      "商": 2974,
      "啊": 2975,
      "問": 2976,
      "啐": 2977,
      "啓": 2978,
      "啞": 2979,
      "啟": 2980,
      "啡": 2981,
      "啣": 2982,
      "啤": 2983,
      "啦": 2984,
      "啱": 2985,
      "啸": 2986,
      "啼": 2987,
      "喀": 2988,
      "善": 2989,
      "喆": 2990,
      "喇": 2991,
      "喉": 2992,
      "喔": 2993,
      "喘": 2994,
      "喙": 2995,
      "喚": 2996,
      "喜": 2997,
      "喝": 2998,
      "喧": 2999,
      "喩": 3000,
      "喪": 3001,
      "喫": 3002,
      "喬": 3003,
      "喭": 3004,
      "單": 3005,
      "喰": 3006,
      "喱": 3007,
      "営": 3008,
      "嗅": 3009,
      "嗎": 3010,
      "嗑": 3011,
      "嗓": 3012,
      "嗚": 3013,
      "嗜": 3014,
      "嗟": 3015,
      "嗣": 3016,
      "嗤": 3017,
      "嗽": 3018,
      "嘀": 3019,
      "嘆": 3020,
      "嘉": 3021,
      "嘏": 3022,
      "嘔": 3023,
      "嘗": 3024,
      "嘘": 3025,
      "嘛": 3026,
      "嘩": 3027,
      "嘲": 3028,
      "嘴": 3029,
      "噂": 3030,
      "噌": 3031,
      "器": 3032,
      "噫": 3033,
      "噬": 3034,
      "噴": 3035,
      "嚆": 3036,
      "嚴": 3037,
      "嚼": 3038,
      "囂": 3039,
      "囊": 3040,
      "囍": 3041,
      "囑": 3042,
      "囚": 3043,
      "四": 3044,
      "囜": 3045,
      "回": 3046,
      "因": 3047,
      "团": 3048,
      "団": 3049,
      "园": 3050,
      "困": 3051,
      "囲": 3052,
      "図": 3053,
      "围": 3054,
      "囹": 3055,
      "固": 3056,
      "国": 3057,
      "图": 3058,
      "圃": 3059,
      "圄": 3060,
      "圆": 3061,
      "圈": 3062,
      "圉": 3063,
      "國": 3064,
      "圌": 3065,
      "圍": 3066,
      "圏": 3067,
      "園": 3068,
      "圓": 3069,
      "圖": 3070,
      "團": 3071,
      "土": 3072,
      "圣": 3073,
      "圧": 3074,
      "在": 3075,
      "圭": 3076,
      "地": 3077,
      "圳": 3078,
      "场": 3079,
      "址": 3080,
      "坂": 3081,
      "均": 3082,
      "坊": 3083,
      "坎": 3084,
      "坏": 3085,
      "坐": 3086,
      "坑": 3087,
      "坔": 3088,
      "块": 3089,
      "坙": 3090,
      "坚": 3091,
      "坛": 3092,
      "坡": 3093,
      "坤": 3094,
      "坦": 3095,
      "坪": 3096,
      "坫": 3097,
      "坮": 3098,
      "垂": 3099,
      "型": 3100,
      "垓": 3101,
      "垕": 3102,
      "垠": 3103,
      "垢": 3104,
      "垣": 3105,
      "埃": 3106,
      "埈": 3107,
      "埋": 3108,
      "城": 3109,
      "埔": 3110,
      "域": 3111,
      "埰": 3112,
      "執": 3113,
      "培": 3114,
      "基": 3115,
      "埼": 3116,
      "堀": 3117,
      "堂": 3118,
      "堅": 3119,
      "堆": 3120,
      "堉": 3121,
      "堕": 3122,
      "堡": 3123,
      "堤": 3124,
      "堪": 3125,
      "堯": 3126,
      "報": 3127,
      "堲": 3128,
      "場": 3129,
      "堵": 3130,
      "堺": 3131,
      "塊": 3132,
      "塋": 3133,
      "塑": 3134,
      "塔": 3135,
      "塗": 3136,
      "塘": 3137,
      "塙": 3138,
      "塚": 3139,
      "塞": 3140,
      "塡": 3141,
      "塩": 3142,
      "填": 3143,
      "塵": 3144,
      "塼": 3145,
      "塾": 3146,
      "境": 3147,
      "墉": 3148,
      "墓": 3149,
      "増": 3150,
      "墙": 3151,
      "墜": 3152,
      "增": 3153,
      "墟": 3154,
      "墨": 3155,
      "墮": 3156,
      "墳": 3157,
      "墺": 3158,
      "墻": 3159,
      "壁": 3160,
      "壅": 3161,
      "壇": 3162,
      "壊": 3163,
      "壑": 3164,
      "壓": 3165,
      "壙": 3166,
      "壞": 3167,
      "壤": 3168,
      "士": 3169,
      "壬": 3170,
      "壮": 3171,
      "壯": 3172,
      "声": 3173,
      "壱": 3174,
      "売": 3175,
      "壹": 3176,
      "壺": 3177,
      "壽": 3178,
      "处": 3179,
      "备": 3180,
      "変": 3181,
      "复": 3182,
      "夏": 3183,
      "夕": 3184,
      "外": 3185,
      "多": 3186,
      "夜": 3187,
      "够": 3188,
      "夢": 3189,
      "大": 3190,
      "天": 3191,
      "太": 3192,
      "夫": 3193,
      "夬": 3194,
      "夭": 3195,
      "央": 3196,
      "夯": 3197,
      "失": 3198,
      "头": 3199,
      "夷": 3200,
      "夹": 3201,
      "夾": 3202,
      "奀": 3203,
      "奇": 3204,
      "奈": 3205,
      "奉": 3206,
      "奎": 3207,
      "奏": 3208,
      "契": 3209,
      "奔": 3210,
      "奕": 3211,
      "奖": 3212,
      "套": 3213,
      "奘": 3214,
      "奚": 3215,
      "奠": 3216,
      "奢": 3217,
      "奥": 3218,
      "奧": 3219,
      "奨": 3220,
      "奪": 3221,
      "奫": 3222,
      "奬": 3223,
      "奭": 3224,
      "奮": 3225,
      "奲": 3226,
      "女": 3227,
      "奴": 3228,
      "奶": 3229,
      "奸": 3230,
      "她": 3231,
      "好": 3232,
      "如": 3233,
      "妃": 3234,
      "妄": 3235,
      "妇": 3236,
      "妈": 3237,
      "妊": 3238,
      "妏": 3239,
      "妓": 3240,
      "妖": 3241,
      "妙": 3242,
      "妞": 3243,
      "妣": 3244,
      "妥": 3245,
      "妨": 3246,
      "妬": 3247,
      "妲": 3248,
      "妹": 3249,
      "妻": 3250,
      "妾": 3251,
      "姆": 3252,
      "姉": 3253,
      "姊": 3254,
      "始": 3255,
      "姑": 3256,
      "姒": 3257,
      "姓": 3258,
      "委": 3259,
      "姙": 3260,
      "姚": 3261,
      "姜": 3262,
      "姝": 3263,
      "姤": 3264,
      "姦": 3265,
      "姨": 3266,
      "姪": 3267,
      "姫": 3268,
      "姬": 3269,
      "姸": 3270,
      "姻": 3271,
      "姼": 3272,
      "姿": 3273,
      "威": 3274,
      "娃": 3275,
      "娄": 3276,
      "娇": 3277,
      "娑": 3278,
      "娘": 3279,
      "娛": 3280,
      "娜": 3281,
      "娥": 3282,
      "娩": 3283,
      "娱": 3284,
      "娶": 3285,
      "娼": 3286,
      "婁": 3287,
      "婆": 3288,
      "婉": 3289,
      "婚": 3290,
      "婢": 3291,
      "婦": 3292,
      "婧": 3293,
      "婴": 3294,
      "婺": 3295,
      "婿": 3296,
      "媒": 3297,
      "媚": 3298,
      "媛": 3299,
      "媤": 3300,
      "媼": 3301,
      "媽": 3302,
      "嫁": 3303,
      "嫂": 3304,
      "嫄": 3305,
      "嫉": 3306,
      "嫋": 3307,
      "嫌": 3308,
      "嫗": 3309,
      "嫡": 3310,
      "嬉": 3311,
      "嬌": 3312,
      "嬢": 3313,
      "嬪": 3314,
      "嬰": 3315,
      "嬺": 3316,
      "孀": 3317,
      "子": 3318,
      "孔": 3319,
      "孕": 3320,
      "字": 3321,
      "存": 3322,
      "孙": 3323,
      "孚": 3324,
      "孜": 3325,
      "孝": 3326,
      "孟": 3327,
      "季": 3328,
      "孤": 3329,
      "学": 3330,
      "孩": 3331,
      "孫": 3332,
      "孰": 3333,
      "孵": 3334,
      "學": 3335,
      "孺": 3336,
      "宁": 3337,
      "它": 3338,
      "宅": 3339,
      "宇": 3340,
      "守": 3341,
      "安": 3342,
      "宋": 3343,
      "完": 3344,
      "宏": 3345,
      "宕": 3346,
      "宗": 3347,
      "官": 3348,
      "宙": 3349,
      "定": 3350,
      "宛": 3351,
      "宜": 3352,
      "宝": 3353,
      "实": 3354,
      "実": 3355,
      "审": 3356,
      "客": 3357,
      "宣": 3358,
      "室": 3359,
      "宥": 3360,
      "宦": 3361,
      "宨": 3362,
      "宪": 3363,
      "宫": 3364,
      "宮": 3365,
      "宰": 3366,
      "害": 3367,
      "宴": 3368,
      "家": 3369,
      "容": 3370,
      "宽": 3371,
      "宾": 3372,
      "宿": 3373,
      "寂": 3374,
      "寃": 3375,
      "寄": 3376,
      "寅": 3377,
      "密": 3378,
      "寇": 3379,
      "富": 3380,
      "寐": 3381,
      "寒": 3382,
      "寓": 3383,
      "寖": 3384,
      "寛": 3385,
      "寝": 3386,
      "寞": 3387,
      "察": 3388,
      "寡": 3389,
      "寢": 3390,
      "寤": 3391,
      "實": 3392,
      "寧": 3393,
      "寨": 3394,
      "審": 3395,
      "寫": 3396,
      "寬": 3397,
      "寮": 3398,
      "寰": 3399,
      "寶": 3400,
      "寸": 3401,
      "对": 3402,
      "寺": 3403,
      "寻": 3404,
      "导": 3405,
      "対": 3406,
      "寿": 3407,
      "封": 3408,
      "専": 3409,
      "射": 3410,
      "尅": 3411,
      "将": 3412,
      "將": 3413,
      "專": 3414,
      "尉": 3415,
      "尊": 3416,
      "尋": 3417,
      "對": 3418,
      "導": 3419,
      "小": 3420,
      "少": 3421,
      "尔": 3422,
      "尖": 3423,
      "尙": 3424,
      "尚": 3425,
      "尝": 3426,
      "尤": 3427,
      "尧": 3428,
      "尨": 3429,
      "就": 3430,
      "尸": 3431,
      "尹": 3432,
      "尺": 3433,
      "尻": 3434,
      "尼": 3435,
      "尽": 3436,
      "尾": 3437,
      "尿": 3438,
      "局": 3439,
      "层": 3440,
      "屄": 3441,
      "居": 3442,
      "屈": 3443,
      "届": 3444,
      "屋": 3445,
      "屍": 3446,
      "屎": 3447,
      "屏": 3448,
      "屑": 3449,
      "展": 3450,
      "屛": 3451,
      "属": 3452,
      "屠": 3453,
      "屢": 3454,
      "層": 3455,
      "履": 3456,
      "屬": 3457,
      "屯": 3458,
      "屰": 3459,
      "山": 3460,
      "屿": 3461,
      "岁": 3462,
      "岊": 3463,
      "岐": 3464,
      "岑": 3465,
      "岗": 3466,
      "岛": 3467,
      "岡": 3468,
      "岦": 3469,
      "岩": 3470,
      "岬": 3471,
      "岭": 3472,
      "岱": 3473,
      "岳": 3474,
      "岵": 3475,
      "岷": 3476,
      "岸": 3477,
      "岾": 3478,
      "峙": 3479,
      "峠": 3480,
      "峡": 3481,
      "峩": 3482,
      "峪": 3483,
      "峯": 3484,
      "峰": 3485,
      "峴": 3486,
      "島": 3487,
      "峻": 3488,
      "峽": 3489,
      "崂": 3490,
      "崇": 3491,
      "崎": 3492,
      "崑": 3493,
      "崔": 3494,
      "崖": 3495,
      "崗": 3496,
      "崙": 3497,
      "崛": 3498,
      "崢": 3499,
      "崧": 3500,
      "崩": 3501,
      "嵌": 3502,
      "嵐": 3503,
      "嵒": 3504,
      "嵩": 3505,
      "嶅": 3506,
      "嶋": 3507,
      "嶠": 3508,
      "嶸": 3509,
      "嶺": 3510,
      "嶼": 3511,
      "嶽": 3512,
      "巒": 3513,
      "巖": 3514,
      "川": 3515,
      "州": 3516,
      "巡": 3517,
      "巢": 3518,
      "工": 3519,
      "左": 3520,
      "巧": 3521,
      "巨": 3522,
      "巫": 3523,
      "差": 3524,
      "己": 3525,
      "已": 3526,
      "巳": 3527,
      "巴": 3528,
      "巷": 3529,
      "巻": 3530,
      "巽": 3531,
      "巾": 3532,
      "币": 3533,
      "市": 3534,
      "布": 3535,
      "帆": 3536,
      "师": 3537,
      "希": 3538,
      "帐": 3539,
      "帖": 3540,
      "帛": 3541,
      "帝": 3542,
      "帥": 3543,
      "带": 3544,
      "師": 3545,
      "席": 3546,
      "帮": 3547,
      "帯": 3548,
      "帰": 3549,
      "帳": 3550,
      "帶": 3551,
      "帷": 3552,
      "常": 3553,
      "帽": 3554,
      "幀": 3555,
      "幅": 3556,
      "幇": 3557,
      "幌": 3558,
      "幕": 3559,
      "幡": 3560,
      "幢": 3561,
      "幫": 3562,
      "干": 3563,
      "平": 3564,
      "年": 3565,
      "并": 3566,
      "幷": 3567,
      "幸": 3568,
      "幹": 3569,
      "幻": 3570,
      "幼": 3571,
      "幽": 3572,
      "幾": 3573,
      "广": 3574,
      "庁": 3575,
      "広": 3576,
      "庄": 3577,
      "庆": 3578,
      "床": 3579,
      "序": 3580,
      "庐": 3581,
      "库": 3582,
      "应": 3583,
      "底": 3584,
      "庖": 3585,
      "店": 3586,
      "庙": 3587,
      "庚": 3588,
      "府": 3589,
      "庞": 3590,
      "庠": 3591,
      "度": 3592,
      "座": 3593,
      "庫": 3594,
      "庭": 3595,
      "庵": 3596,
      "庶": 3597,
      "康": 3598,
      "庸": 3599,
      "廁": 3600,
      "廂": 3601,
      "廃": 3602,
      "廈": 3603,
      "廉": 3604,
      "廊": 3605,
      "廐": 3606,
      "廓": 3607,
      "廖": 3608,
      "廚": 3609,
      "廛": 3610,
      "廟": 3611,
      "廠": 3612,
      "廢": 3613,
      "廣": 3614,
      "廬": 3615,
      "廳": 3616,
      "延": 3617,
      "廷": 3618,
      "建": 3619,
      "廻": 3620,
      "开": 3621,
      "弁": 3622,
      "异": 3623,
      "弃": 3624,
      "弄": 3625,
      "弊": 3626,
      "式": 3627,
      "弓": 3628,
      "弔": 3629,
      "引": 3630,
      "弗": 3631,
      "弘": 3632,
      "弛": 3633,
      "弟": 3634,
      "张": 3635,
      "弥": 3636,
      "弦": 3637,
      "弧": 3638,
      "弯": 3639,
      "弱": 3640,
      "張": 3641,
      "強": 3642,
      "强": 3643,
      "弼": 3644,
      "弾": 3645,
      "彈": 3646,
      "彊": 3647,
      "彌": 3648,
      "归": 3649,
      "当": 3650,
      "录": 3651,
      "彘": 3652,
      "彙": 3653,
      "彝": 3654,
      "形": 3655,
      "彥": 3656,
      "彦": 3657,
      "彧": 3658,
      "彩": 3659,
      "彫": 3660,
      "彬": 3661,
      "彭": 3662,
      "彰": 3663,
      "影": 3664,
      "彷": 3665,
      "役": 3666,
      "彼": 3667,
      "彿": 3668,
      "往": 3669,
      "征": 3670,
      "徃": 3671,
      "径": 3672,
      "待": 3673,
      "很": 3674,
      "律": 3675,
      "後": 3676,
      "徐": 3677,
      "徑": 3678,
      "徒": 3679,
      "従": 3680,
      "得": 3681,
      "徙": 3682,
      "從": 3683,
      "徠": 3684,
      "御": 3685,
      "徨": 3686,
      "復": 3687,
      "循": 3688,
      "徭": 3689,
      "微": 3690,
      "徳": 3691,
      "徴": 3692,
      "徵": 3693,
      "德": 3694,
      "徹": 3695,
      "徽": 3696,
      "心": 3697,
      "忄": 3698,
      "必": 3699,
      "忆": 3700,
      "忌": 3701,
      "忍": 3702,
      "志": 3703,
      "忘": 3704,
      "忙": 3705,
      "応": 3706,
      "忠": 3707,
      "忡": 3708,
      "忧": 3709,
      "快": 3710,
      "念": 3711,
      "忻": 3712,
      "忽": 3713,
      "忾": 3714,
      "忿": 3715,
      "怀": 3716,
      "态": 3717,
      "怎": 3718,
      "怒": 3719,
      "怔": 3720,
      "怕": 3721,
      "怖": 3722,
      "怜": 3723,
      "思": 3724,
      "怠": 3725,
      "怡": 3726,
      "急": 3727,
      "性": 3728,
      "怨": 3729,
      "怪": 3730,
      "怯": 3731,
      "总": 3732,
      "恃": 3733,
      "恆": 3734,
      "恋": 3735,
      "恍": 3736,
      "恐": 3737,
      "恒": 3738,
      "恕": 3739,
      "恠": 3740,
      "恡": 3741,
      "恢": 3742,
      "恤": 3743,
      "恥": 3744,
      "恨": 3745,
      "恩": 3746,
      "恪": 3747,
      "恭": 3748,
      "息": 3749,
      "恵": 3750,
      "恶": 3751,
      "悅": 3752,
      "悉": 3753,
      "悌": 3754,
      "悍": 3755,
      "悔": 3756,
      "悖": 3757,
      "悟": 3758,
      "悠": 3759,
      "患": 3760,
      "悦": 3761,
      "您": 3762,
      "悩": 3763,
      "悪": 3764,
      "悯": 3765,
      "悲": 3766,
      "悳": 3767,
      "悶": 3768,
      "悸": 3769,
      "悼": 3770,
      "悽": 3771,
      "情": 3772,
      "惊": 3773,
      "惑": 3774,
      "惚": 3775,
      "惜": 3776,
      "惟": 3777,
      "惠": 3778,
      "惡": 3779,
      "惣": 3780,
      "惦": 3781,
      "惩": 3782,
      "惯": 3783,
      "惰": 3784,
      "惱": 3785,
      "想": 3786,
      "惹": 3787,
      "惺": 3788,
      "惻": 3789,
      "愁": 3790,
      "愈": 3791,
      "愉": 3792,
      "愍": 3793,
      "愎": 3794,
      "意": 3795,
      "愕": 3796,
      "愚": 3797,
      "愛": 3798,
      "感": 3799,
      "愡": 3800,
      "愧": 3801,
      "愷": 3802,
      "愼": 3803,
      "愿": 3804,
      "慄": 3805,
      "慈": 3806,
      "態": 3807,
      "慎": 3808,
      "慕": 3809,
      "慘": 3810,
      "慢": 3811,
      "慣": 3812,
      "慧": 3813,
      "慨": 3814,
      "慮": 3815,
      "慰": 3816,
      "慵": 3817,
      "慶": 3818,
      "慷": 3819,
      "慼": 3820,
      "慾": 3821,
      "憂": 3822,
      "憎": 3823,
      "憐": 3824,
      "憑": 3825,
      "憚": 3826,
      "憤": 3827,
      "憧": 3828,
      "憩": 3829,
      "憬": 3830,
      "憲": 3831,
      "憶": 3832,
      "憾": 3833,
      "懂": 3834,
      "懇": 3835,
      "懈": 3836,
      "應": 3837,
      "懋": 3838,
      "懐": 3839,
      "懲": 3840,
      "懷": 3841,
      "懸": 3842,
      "懺": 3843,
      "懼": 3844,
      "懿": 3845,
      "戀": 3846,
      "戈": 3847,
      "戊": 3848,
      "戌": 3849,
      "戍": 3850,
      "戎": 3851,
      "戏": 3852,
      "成": 3853,
      "我": 3854,
      "戒": 3855,
      "或": 3856,
      "戗": 3857,
      "战": 3858,
      "戚": 3859,
      "戟": 3860,
      "戦": 3861,
      "截": 3862,
      "戮": 3863,
      "戯": 3864,
      "戰": 3865,
      "戱": 3866,
      "戲": 3867,
      "戴": 3868,
      "戶": 3869,
      "户": 3870,
      "戸": 3871,
      "戻": 3872,
      "房": 3873,
      "所": 3874,
      "扁": 3875,
      "扃": 3876,
      "扇": 3877,
      "扉": 3878,
      "手": 3879,
      "才": 3880,
      "扎": 3881,
      "打": 3882,
      "払": 3883,
      "托": 3884,
      "扣": 3885,
      "扩": 3886,
      "扫": 3887,
      "扬": 3888,
      "扭": 3889,
      "扮": 3890,
      "扱": 3891,
      "扶": 3892,
      "批": 3893,
      "找": 3894,
      "承": 3895,
      "技": 3896,
      "抄": 3897,
      "抉": 3898,
      "把": 3899,
      "抑": 3900,
      "抒": 3901,
      "抓": 3902,
      "投": 3903,
      "抗": 3904,
      "折": 3905,
      "抛": 3906,
      "抜": 3907,
      "択": 3908,
      "抢": 3909,
      "护": 3910,
      "报": 3911,
      "披": 3912,
      "抱": 3913,
      "抵": 3914,
      "抹": 3915,
      "押": 3916,
      "抽": 3917,
      "拂": 3918,
      "担": 3919,
      "拆": 3920,
      "拈": 3921,
      "拉": 3922,
      "拌": 3923,
      "拍": 3924,
      "拏": 3925,
      "拒": 3926,
      "拓": 3927,
      "拔": 3928,
      "拖": 3929,
      "拘": 3930,
      "拙": 3931,
      "招": 3932,
      "拜": 3933,
      "拝": 3934,
      "拟": 3935,
      "拠": 3936,
      "拡": 3937,
      "拥": 3938,
      "择": 3939,
      "括": 3940,
      "拯": 3941,
      "拱": 3942,
      "拳": 3943,
      "拶": 3944,
      "拼": 3945,
      "拾": 3946,
      "拿": 3947,
      "持": 3948,
      "挂": 3949,
      "指": 3950,
      "按": 3951,
      "挑": 3952,
      "挙": 3953,
      "挨": 3954,
      "挫": 3955,
      "振": 3956,
      "挹": 3957,
      "挺": 3958,
      "挽": 3959,
      "挾": 3960,
      "捉": 3961,
      "捐": 3962,
      "捕": 3963,
      "捜": 3964,
      "捞": 3965,
      "损": 3966,
      "换": 3967,
      "捧": 3968,
      "捨": 3969,
      "据": 3970,
      "捲": 3971,
      "捷": 3972,
      "捺": 3973,
      "掃": 3974,
      "授": 3975,
      "掉": 3976,
      "掌": 3977,
      "排": 3978,
      "掖": 3979,
      "掘": 3980,
      "掛": 3981,
      "採": 3982,
      "探": 3983,
      "接": 3984,
      "控": 3985,
      "推": 3986,
      "掩": 3987,
      "措": 3988,
      "掲": 3989,
      "掴": 3990,
      "掾": 3991,
      "揆": 3992,
      "描": 3993,
      "提": 3994,
      "插": 3995,
      "揖": 3996,
      "揚": 3997,
      "換": 3998,
      "握": 3999,
      "揭": 4000,
      "揮": 4001,
      "援": 4002,
      "揷": 4003,
      "揺": 4004,
      "搂": 4005,
      "損": 4006,
      "搔": 4007,
      "搖": 4008,
      "搗": 4009,
      "搜": 4010,
      "搭": 4011,
      "携": 4012,
      "搾": 4013,
      "摂": 4014,
      "摄": 4015,
      "摊": 4016,
      "摘": 4017,
      "摠": 4018,
      "摩": 4019,
      "摯": 4020,
      "摶": 4021,
      "摸": 4022,
      "撃": 4023,
      "撈": 4024,
      "撐": 4025,
      "撑": 4026,
      "撒": 4027,
      "撓": 4028,
      "撚": 4029,
      "撞": 4030,
      "撤": 4031,
      "撥": 4032,
      "撫": 4033,
      "播": 4034,
      "撮": 4035,
      "撰": 4036,
      "撲": 4037,
      "擁": 4038,
      "擅": 4039,
      "擇": 4040,
      "擊": 4041,
      "操": 4042,
      "擎": 4043,
      "擔": 4044,
      "據": 4045,
      "擡": 4046,
      "擢": 4047,
      "擥": 4048,
      "擦": 4049,
      "擧": 4050,
      "擬": 4051,
      "擲": 4052,
      "擴": 4053,
      "擺": 4054,
      "擾": 4055,
      "攀": 4056,
      "攄": 4057,
      "攘": 4058,
      "攝": 4059,
      "攢": 4060,
      "攪": 4061,
      "攫": 4062,
      "攬": 4063,
      "支": 4064,
      "收": 4065,
      "攸": 4066,
      "改": 4067,
      "攻": 4068,
      "放": 4069,
      "政": 4070,
      "故": 4071,
      "效": 4072,
      "敌": 4073,
      "敍": 4074,
      "敎": 4075,
      "敏": 4076,
      "救": 4077,
      "敗": 4078,
      "敘": 4079,
      "教": 4080,
      "敜": 4081,
      "敞": 4082,
      "敢": 4083,
      "散": 4084,
      "敦": 4085,
      "敬": 4086,
      "数": 4087,
      "敲": 4088,
      "整": 4089,
      "敵": 4090,
      "敷": 4091,
      "數": 4092,
      "斂": 4093,
      "文": 4094,
      "斉": 4095,
      "斌": 4096,
      "斎": 4097,
      "斑": 4098,
      "斗": 4099,
      "料": 4100,
      "斛": 4101,
      "斜": 4102,
      "斤": 4103,
      "斥": 4104,
      "斧": 4105,
      "斫": 4106,
      "斬": 4107,
      "断": 4108,
      "斯": 4109,
      "新": 4110,
      "斷": 4111,
      "方": 4112,
      "於": 4113,
      "施": 4114,
      "旁": 4115,
      "旅": 4116,
      "旋": 4117,
      "旌": 4118,
      "族": 4119,
      "旒": 4120,
      "旗": 4121,
      "无": 4122,
      "既": 4123,
      "旣": 4124,
      "日": 4125,
      "旦": 4126,
      "旧": 4127,
      "旨": 4128,
      "早": 4129,
      "旬": 4130,
      "旭": 4131,
      "旱": 4132,
      "时": 4133,
      "旸": 4134,
      "旺": 4135,
      "旻": 4136,
      "旼": 4137,
      "旿": 4138,
      "昂": 4139,
      "昆": 4140,
      "昇": 4141,
      "昊": 4142,
      "昌": 4143,
      "明": 4144,
      "昏": 4145,
      "易": 4146,
      "昔": 4147,
      "星": 4148,
      "映": 4149,
      "春": 4150,
      "昧": 4151,
      "昨": 4152,
      "昫": 4153,
      "昭": 4154,
      "是": 4155,
      "昱": 4156,
      "昼": 4157,
      "显": 4158,
      "時": 4159,
      "晃": 4160,
      "晉": 4161,
      "晋": 4162,
      "晏": 4163,
      "晓": 4164,
      "晚": 4165,
      "晛": 4166,
      "晝": 4167,
      "晟": 4168,
      "晦": 4169,
      "晨": 4170,
      "晩": 4171,
      "普": 4172,
      "景": 4173,
      "晳": 4174,
      "晴": 4175,
      "晶": 4176,
      "智": 4177,
      "暁": 4178,
      "暂": 4179,
      "暇": 4180,
      "暈": 4181,
      "暎": 4182,
      "暑": 4183,
      "暖": 4184,
      "暗": 4185,
      "暘": 4186,
      "暢": 4187,
      "暦": 4188,
      "暫": 4189,
      "暮": 4190,
      "暳": 4191,
      "暴": 4192,
      "暻": 4193,
      "曄": 4194,
      "曆": 4195,
      "曇": 4196,
      "曉": 4197,
      "曋": 4198,
      "曌": 4199,
      "曖": 4200,
      "曜": 4201,
      "曠": 4202,
      "曦": 4203,
      "曬": 4204,
      "曰": 4205,
      "曲": 4206,
      "更": 4207,
      "曷": 4208,
      "書": 4209,
      "曹": 4210,
      "曺": 4211,
      "曼": 4212,
      "曽": 4213,
      "曾": 4214,
      "替": 4215,
      "最": 4216,
      "會": 4217,
      "朇": 4218,
      "月": 4219,
      "有": 4220,
      "朋": 4221,
      "服": 4222,
      "朔": 4223,
      "朕": 4224,
      "朗": 4225,
      "望": 4226,
      "朝": 4227,
      "朞": 4228,
      "期": 4229,
      "木": 4230,
      "未": 4231,
      "末": 4232,
      "本": 4233,
      "札": 4234,
      "术": 4235,
      "朱": 4236,
      "朴": 4237,
      "朵": 4238,
      "机": 4239,
      "权": 4240,
      "杆": 4241,
      "杉": 4242,
      "李": 4243,
      "杏": 4244,
      "材": 4245,
      "村": 4246,
      "杓": 4247,
      "杖": 4248,
      "杜": 4249,
      "杞": 4250,
      "束": 4251,
      "杠": 4252,
      "条": 4253,
      "来": 4254,
      "杨": 4255,
      "杭": 4256,
      "杯": 4257,
      "杰": 4258,
      "東": 4259,
      "杲": 4260,
      "杵": 4261,
      "松": 4262,
      "板": 4263,
      "极": 4264,
      "构": 4265,
      "枇": 4266,
      "枋": 4267,
      "析": 4268,
      "枕": 4269,
      "林": 4270,
      "枚": 4271,
      "果": 4272,
      "枝": 4273,
      "枢": 4274,
      "枯": 4275,
      "枰": 4276,
      "枳": 4277,
      "架": 4278,
      "柄": 4279,
      "柏": 4280,
      "某": 4281,
      "柑": 4282,
      "染": 4283,
      "柔": 4284,
      "柚": 4285,
      "柠": 4286,
      "查": 4287,
      "柩": 4288,
      "柯": 4289,
      "柰": 4290,
      "柱": 4291,
      "柳": 4292,
      "柴": 4293,
      "柵": 4294,
      "査": 4295,
      "栃": 4296,
      "栄": 4297,
      "栅": 4298,
      "标": 4299,
      "栈": 4300,
      "栏": 4301,
      "树": 4302,
      "栓": 4303,
      "栗": 4304,
      "校": 4305,
      "栢": 4306,
      "株": 4307,
      "栮": 4308,
      "样": 4309,
      "核": 4310,
      "根": 4311,
      "格": 4312,
      "栽": 4313,
      "桁": 4314,
      "桂": 4315,
      "桃": 4316,
      "案": 4317,
      "桎": 4318,
      "桐": 4319,
      "桑": 4320,
      "桓": 4321,
      "桔": 4322,
      "桜": 4323,
      "档": 4324,
      "桥": 4325,
      "桦": 4326,
      "桨": 4327,
      "桴": 4328,
      "桸": 4329,
      "梁": 4330,
      "梅": 4331,
      "梏": 4332,
      "梓": 4333,
      "梗": 4334,
      "條": 4335,
      "梢": 4336,
      "梦": 4337,
      "梧": 4338,
      "梨": 4339,
      "梭": 4340,
      "械": 4341,
      "梵": 4342,
      "检": 4343,
      "棄": 4344,
      "棉": 4345,
      "棋": 4346,
      "棍": 4347,
      "棒": 4348,
      "棗": 4349,
      "棘": 4350,
      "棚": 4351,
      "棟": 4352,
      "棠": 4353,
      "棣": 4354,
      "棧": 4355,
      "森": 4356,
      "棲": 4357,
      "棺": 4358,
      "棾": 4359,
      "椅": 4360,
      "植": 4361,
      "椎": 4362,
      "椒": 4363,
      "検": 4364,
      "椪": 4365,
      "椹": 4366,
      "椽": 4367,
      "椿": 4368,
      "楊": 4369,
      "楓": 4370,
      "楔": 4371,
      "楙": 4372,
      "楚": 4373,
      "楞": 4374,
      "楠": 4375,
      "楡": 4376,
      "業": 4377,
      "楮": 4378,
      "楯": 4379,
      "極": 4380,
      "楷": 4381,
      "楺": 4382,
      "楼": 4383,
      "楽": 4384,
      "概": 4385,
      "榊": 4386,
      "榔": 4387,
      "榜": 4388,
      "榮": 4389,
      "槁": 4390,
      "槃": 4391,
      "構": 4392,
      "槌": 4393,
      "槍": 4394,
      "槎": 4395,
      "槐": 4396,
      "様": 4397,
      "槨": 4398,
      "槪": 4399,
      "槽": 4400,
      "槿": 4401,
      "樁": 4402,
      "樂": 4403,
      "樊": 4404,
      "樑": 4405,
      "樓": 4406,
      "樗": 4407,
      "標": 4408,
      "樞": 4409,
      "樟": 4410,
      "模": 4411,
      "樣": 4412,
      "樨": 4413,
      "権": 4414,
      "横": 4415,
      "樫": 4416,
      "樵": 4417,
      "樸": 4418,
      "樹": 4419,
      "樻": 4420,
      "樽": 4421,
      "橄": 4422,
      "橋": 4423,
      "橘": 4424,
      "機": 4425,
      "橢": 4426,
      "橫": 4427,
      "橹": 4428,
      "橿": 4429,
      "檀": 4430,
      "檄": 4431,
      "檍": 4432,
      "檐": 4433,
      "檜": 4434,
      "檞": 4435,
      "檢": 4436,
      "檬": 4437,
      "檳": 4438,
      "櫓": 4439,
      "櫛": 4440,
      "櫻": 4441,
      "欄": 4442,
      "欅": 4443,
      "權": 4444,
      "欌": 4445,
      "欑": 4446,
      "欖": 4447,
      "欠": 4448,
      "次": 4449,
      "欢": 4450,
      "欣": 4451,
      "欧": 4452,
      "欲": 4453,
      "欺": 4454,
      "欻": 4455,
      "欽": 4456,
      "款": 4457,
      "歆": 4458,
      "歉": 4459,
      "歌": 4460,
      "歎": 4461,
      "歐": 4462,
      "歓": 4463,
      "歙": 4464,
      "歟": 4465,
      "歡": 4466,
      "止": 4467,
      "正": 4468,
      "此": 4469,
      "步": 4470,
      "武": 4471,
      "歧": 4472,
      "歩": 4473,
      "歪": 4474,
      "歯": 4475,
      "歲": 4476,
      "歳": 4477,
      "歴": 4478,
      "歷": 4479,
      "歸": 4480,
      "死": 4481,
      "殂": 4482,
      "殃": 4483,
      "殆": 4484,
      "殉": 4485,
      "殊": 4486,
      "残": 4487,
      "殖": 4488,
      "殘": 4489,
      "殮": 4490,
      "殲": 4491,
      "段": 4492,
      "殷": 4493,
      "殺": 4494,
      "殼": 4495,
      "殿": 4496,
      "毀": 4497,
      "毁": 4498,
      "毅": 4499,
      "毆": 4500,
      "毋": 4501,
      "毌": 4502,
      "母": 4503,
      "毎": 4504,
      "每": 4505,
      "毒": 4506,
      "比": 4507,
      "毕": 4508,
      "毗": 4509,
      "毘": 4510,
      "毛": 4511,
      "毫": 4512,
      "毬": 4513,
      "氏": 4514,
      "氐": 4515,
      "民": 4516,
      "氓": 4517,
      "气": 4518,
      "気": 4519,
      "氣": 4520,
      "水": 4521,
      "氷": 4522,
      "永": 4523,
      "氾": 4524,
      "汀": 4525,
      "汁": 4526,
      "求": 4527,
      "汇": 4528,
      "汉": 4529,
      "汎": 4530,
      "汐": 4531,
      "汕": 4532,
      "汗": 4533,
      "汚": 4534,
      "汛": 4535,
      "汝": 4536,
      "江": 4537,
      "池": 4538,
      "汤": 4539,
      "汩": 4540,
      "汪": 4541,
      "汲": 4542,
      "汴": 4543,
      "汶": 4544,
      "決": 4545,
      "汽": 4546,
      "汾": 4547,
      "沁": 4548,
      "沂": 4549,
      "沃": 4550,
      "沆": 4551,
      "沇": 4552,
      "沈": 4553,
      "沉": 4554,
      "沌": 4555,
      "沐": 4556,
      "沒": 4557,
      "沖": 4558,
      "沘": 4559,
      "沙": 4560,
      "沟": 4561,
      "没": 4562,
      "沢": 4563,
      "沧": 4564,
      "沪": 4565,
      "沫": 4566,
      "沮": 4567,
      "河": 4568,
      "沸": 4569,
      "油": 4570,
      "治": 4571,
      "沼": 4572,
      "沽": 4573,
      "沿": 4574,
      "況": 4575,
      "泄": 4576,
      "泅": 4577,
      "泉": 4578,
      "泊": 4579,
      "泌": 4580,
      "泓": 4581,
      "法": 4582,
      "泗": 4583,
      "泛": 4584,
      "泡": 4585,
      "波": 4586,
      "泣": 4587,
      "泥": 4588,
      "注": 4589,
      "泮": 4590,
      "泰": 4591,
      "泳": 4592,
      "泸": 4593,
      "泽": 4594,
      "洁": 4595,
      "洋": 4596,
      "洌": 4597,
      "洑": 4598,
      "洒": 4599,
      "洗": 4600,
      "洙": 4601,
      "洛": 4602,
      "洞": 4603,
      "津": 4604,
      "洩": 4605,
      "洪": 4606,
      "洱": 4607,
      "洲": 4608,
      "洵": 4609,
      "洶": 4610,
      "洸": 4611,
      "洹": 4612,
      "活": 4613,
      "洽": 4614,
      "派": 4615,
      "流": 4616,
      "浅": 4617,
      "测": 4618,
      "济": 4619,
      "浏": 4620,
      "浙": 4621,
      "浚": 4622,
      "浜": 4623,
      "浣": 4624,
      "浦": 4625,
      "浩": 4626,
      "浪": 4627,
      "浮": 4628,
      "浴": 4629,
      "海": 4630,
      "浸": 4631,
      "浹": 4632,
      "浿": 4633,
      "涅": 4634,
      "消": 4635,
      "涉": 4636,
      "涌": 4637,
      "涓": 4638,
      "涙": 4639,
      "涜": 4640,
      "涯": 4641,
      "液": 4642,
      "涵": 4643,
      "涼": 4644,
      "涿": 4645,
      "淀": 4646,
      "淄": 4647,
      "淇": 4648,
      "淋": 4649,
      "淌": 4650,
      "淑": 4651,
      "淗": 4652,
      "淘": 4653,
      "淙": 4654,
      "淚": 4655,
      "淡": 4656,
      "淨": 4657,
      "淪": 4658,
      "淫": 4659,
      "淮": 4660,
      "淯": 4661,
      "深": 4662,
      "淳": 4663,
      "淵": 4664,
      "混": 4665,
      "淸": 4666,
      "淹": 4667,
      "淺": 4668,
      "添": 4669,
      "清": 4670,
      "済": 4671,
      "渉": 4672,
      "渋": 4673,
      "渐": 4674,
      "渓": 4675,
      "渕": 4676,
      "渗": 4677,
      "渚": 4678,
      "減": 4679,
      "渝": 4680,
      "渠": 4681,
      "渡": 4682,
      "渣": 4683,
      "渤": 4684,
      "渦": 4685,
      "温": 4686,
      "測": 4687,
      "渭": 4688,
      "港": 4689,
      "渲": 4690,
      "渴": 4691,
      "游": 4692,
      "渺": 4693,
      "渽": 4694,
      "渾": 4695,
      "湊": 4696,
      "湓": 4697,
      "湖": 4698,
      "湘": 4699,
      "湛": 4700,
      "湜": 4701,
      "湧": 4702,
      "湨": 4703,
      "湩": 4704,
      "湫": 4705,
      "湯": 4706,
      "湲": 4707,
      "湻": 4708,
      "湾": 4709,
      "湿": 4710,
      "満": 4711,
      "溉": 4712,
      "源": 4713,
      "準": 4714,
      "溜": 4715,
      "溝": 4716,
      "溟": 4717,
      "溢": 4718,
      "溥": 4719,
      "溧": 4720,
      "溪": 4721,
      "溫": 4722,
      "溯": 4723,
      "溱": 4724,
      "溲": 4725,
      "溴": 4726,
      "溶": 4727,
      "溺": 4728,
      "滄": 4729,
      "滅": 4730,
      "滉": 4731,
      "滋": 4732,
      "滌": 4733,
      "滑": 4734,
      "滓": 4735,
      "滕": 4736,
      "滝": 4737,
      "滞": 4738,
      "满": 4739,
      "滥": 4740,
      "滨": 4741,
      "滩": 4742,
      "滯": 4743,
      "滲": 4744,
      "滴": 4745,
      "滸": 4746,
      "滿": 4747,
      "漁": 4748,
      "漂": 4749,
      "漆": 4750,
      "漏": 4751,
      "漑": 4752,
      "漓": 4753,
      "演": 4754,
      "漠": 4755,
      "漢": 4756,
      "漣": 4757,
      "漫": 4758,
      "漬": 4759,
      "漯": 4760,
      "漱": 4761,
      "漲": 4762,
      "漳": 4763,
      "漵": 4764,
      "漸": 4765,
      "漿": 4766,
      "潁": 4767,
      "潑": 4768,
      "潔": 4769,
      "潘": 4770,
      "潚": 4771,
      "潛": 4772,
      "潜": 4773,
      "潟": 4774,
      "潤": 4775,
      "潭": 4776,
      "潮": 4777,
      "潰": 4778,
      "潸": 4779,
      "潺": 4780,
      "澁": 4781,
      "澄": 4782,
      "澈": 4783,
      "澎": 4784,
      "澗": 4785,
      "澜": 4786,
      "澣": 4787,
      "澤": 4788,
      "澱": 4789,
      "澳": 4790,
      "激": 4791,
      "濁": 4792,
      "濃": 4793,
      "濆": 4794,
      "濊": 4795,
      "濕": 4796,
      "濘": 4797,
      "濞": 4798,
      "濟": 4799,
      "濠": 4800,
      "濡": 4801,
      "濤": 4802,
      "濦": 4803,
      "濫": 4804,
      "濬": 4805,
      "濮": 4806,
      "濯": 4807,
      "濱": 4808,
      "濾": 4809,
      "瀅": 4810,
      "瀆": 4811,
      "瀉": 4812,
      "瀋": 4813,
      "瀑": 4814,
      "瀕": 4815,
      "瀚": 4816,
      "瀛": 4817,
      "瀟": 4818,
      "瀨": 4819,
      "瀬": 4820,
      "瀾": 4821,
      "灌": 4822,
      "灑": 4823,
      "灕": 4824,
      "灘": 4825,
      "灣": 4826,
      "灤": 4827,
      "火": 4828,
      "灭": 4829,
      "灯": 4830,
      "灰": 4831,
      "灵": 4832,
      "灸": 4833,
      "災": 4834,
      "灾": 4835,
      "灿": 4836,
      "炁": 4837,
      "炅": 4838,
      "炉": 4839,
      "炊": 4840,
      "炎": 4841,
      "炒": 4842,
      "炙": 4843,
      "炫": 4844,
      "炭": 4845,
      "炯": 4846,
      "炳": 4847,
      "炸": 4848,
      "点": 4849,
      "為": 4850,
      "烁": 4851,
      "烂": 4852,
      "烈": 4853,
      "烏": 4854,
      "烘": 4855,
      "烟": 4856,
      "烤": 4857,
      "烦": 4858,
      "烧": 4859,
      "热": 4860,
      "烹": 4861,
      "烽": 4862,
      "焄": 4863,
      "焉": 4864,
      "焙": 4865,
      "焚": 4866,
      "無": 4867,
      "焦": 4868,
      "焰": 4869,
      "然": 4870,
      "焼": 4871,
      "煉": 4872,
      "煌": 4873,
      "煎": 4874,
      "煐": 4875,
      "煒": 4876,
      "煕": 4877,
      "煖": 4878,
      "煙": 4879,
      "煞": 4880,
      "煤": 4881,
      "煥": 4882,
      "照": 4883,
      "煩": 4884,
      "煬": 4885,
      "煮": 4886,
      "煽": 4887,
      "熄": 4888,
      "熊": 4889,
      "熏": 4890,
      "熒": 4891,
      "熔": 4892,
      "熙": 4893,
      "熟": 4894,
      "熨": 4895,
      "熬": 4896,
      "熱": 4897,
      "熹": 4898,
      "熾": 4899,
      "燁": 4900,
      "燃": 4901,
      "燈": 4902,
      "燎": 4903,
      "燐": 4904,
      "燒": 4905,
      "燔": 4906,
      "燕": 4907,
      "營": 4908,
      "燥": 4909,
      "燦": 4910,
      "燧": 4911,
      "燭": 4912,
      "燮": 4913,
      "燾": 4914,
      "爆": 4915,
      "爐": 4916,
      "爛": 4917,
      "爪": 4918,
      "爬": 4919,
      "爭": 4920,
      "爱": 4921,
      "爲": 4922,
      "爵": 4923,
      "父": 4924,
      "爸": 4925,
      "爻": 4926,
      "爽": 4927,
      "爾": 4928,
      "牆": 4929,
      "片": 4930,
      "版": 4931,
      "牌": 4932,
      "牒": 4933,
      "牘": 4934,
      "牙": 4935,
      "牛": 4936,
      "牝": 4937,
      "牟": 4938,
      "牡": 4939,
      "牢": 4940,
      "牧": 4941,
      "物": 4942,
      "牯": 4943,
      "牲": 4944,
      "特": 4945,
      "牽": 4946,
      "犀": 4947,
      "犠": 4948,
      "犢": 4949,
      "犧": 4950,
      "犬": 4951,
      "犯": 4952,
      "状": 4953,
      "狀": 4954,
      "狂": 4955,
      "狄": 4956,
      "狐": 4957,
      "狗": 4958,
      "狙": 4959,
      "狩": 4960,
      "独": 4961,
      "狭": 4962,
      "狹": 4963,
      "狻": 4964,
      "狼": 4965,
      "猊": 4966,
      "猕": 4967,
      "猖": 4968,
      "猗": 4969,
      "猛": 4970,
      "猝": 4971,
      "猪": 4972,
      "猫": 4973,
      "献": 4974,
      "猴": 4975,
      "猶": 4976,
      "猷": 4977,
      "猿": 4978,
      "獄": 4979,
      "獅": 4980,
      "獎": 4981,
      "獐": 4982,
      "獨": 4983,
      "獲": 4984,
      "獵": 4985,
      "獸": 4986,
      "獻": 4987,
      "玄": 4988,
      "玆": 4989,
      "率": 4990,
      "玉": 4991,
      "王": 4992,
      "玟": 4993,
      "玩": 4994,
      "玮": 4995,
      "环": 4996,
      "现": 4997,
      "玲": 4998,
      "玷": 4999,
      "玻": 5000,
      "珀": 5001,
      "珂": 5002,
      "珈": 5003,
      "珉": 5004,
      "珊": 5005,
      "珍": 5006,
      "珙": 5007,
      "珞": 5008,
      "珠": 5009,
      "珥": 5010,
      "珦": 5011,
      "珩": 5012,
      "珪": 5013,
      "珬": 5014,
      "班": 5015,
      "珺": 5016,
      "現": 5017,
      "球": 5018,
      "琅": 5019,
      "理": 5020,
      "琇": 5021,
      "琉": 5022,
      "琓": 5023,
      "琚": 5024,
      "琛": 5025,
      "琢": 5026,
      "琥": 5027,
      "琦": 5028,
      "琨": 5029,
      "琪": 5030,
      "琬": 5031,
      "琮": 5032,
      "琯": 5033,
      "琰": 5034,
      "琲": 5035,
      "琳": 5036,
      "琴": 5037,
      "琵": 5038,
      "琶": 5039,
      "琺": 5040,
      "琼": 5041,
      "琿": 5042,
      "瑕": 5043,
      "瑚": 5044,
      "瑛": 5045,
      "瑜": 5046,
      "瑞": 5047,
      "瑟": 5048,
      "瑠": 5049,
      "瑤": 5050,
      "瑩": 5051,
      "瑪": 5052,
      "瑯": 5053,
      "瑳": 5054,
      "瑾": 5055,
      "璃": 5056,
      "璇": 5057,
      "璉": 5058,
      "璋": 5059,
      "璐": 5060,
      "璘": 5061,
      "璟": 5062,
      "璣": 5063,
      "璧": 5064,
      "環": 5065,
      "璹": 5066,
      "璿": 5067,
      "瓏": 5068,
      "瓔": 5069,
      "瓚": 5070,
      "瓜": 5071,
      "瓢": 5072,
      "瓣": 5073,
      "瓦": 5074,
      "甁": 5075,
      "甄": 5076,
      "甌": 5077,
      "甑": 5078,
      "甕": 5079,
      "甘": 5080,
      "甚": 5081,
      "甛": 5082,
      "甜": 5083,
      "生": 5084,
      "產": 5085,
      "産": 5086,
      "甥": 5087,
      "用": 5088,
      "甫": 5089,
      "甬": 5090,
      "田": 5091,
      "由": 5092,
      "甲": 5093,
      "申": 5094,
      "电": 5095,
      "男": 5096,
      "甸": 5097,
      "町": 5098,
      "画": 5099,
      "界": 5100,
      "畏": 5101,
      "畑": 5102,
      "畔": 5103,
      "留": 5104,
      "畜": 5105,
      "畝": 5106,
      "畠": 5107,
      "畢": 5108,
      "略": 5109,
      "番": 5110,
      "畫": 5111,
      "異": 5112,
      "畳": 5113,
      "畵": 5114,
      "當": 5115,
      "畷": 5116,
      "畿": 5117,
      "疆": 5118,
      "疊": 5119,
      "疎": 5120,
      "疏": 5121,
      "疑": 5122,
      "疔": 5123,
      "疝": 5124,
      "疫": 5125,
      "疯": 5126,
      "疱": 5127,
      "疲": 5128,
      "疵": 5129,
      "疸": 5130,
      "疹": 5131,
      "疼": 5132,
      "疽": 5133,
      "疾": 5134,
      "病": 5135,
      "症": 5136,
      "痊": 5137,
      "痔": 5138,
      "痕": 5139,
      "痛": 5140,
      "痞": 5141,
      "痢": 5142,
      "痰": 5143,
      "痲": 5144,
      "痴": 5145,
      "痺": 5146,
      "痿": 5147,
      "瘀": 5148,
      "瘋": 5149,
      "瘍": 5150,
      "瘡": 5151,
      "瘤": 5152,
      "瘦": 5153,
      "瘰": 5154,
      "療": 5155,
      "癌": 5156,
      "癒": 5157,
      "癖": 5158,
      "癡": 5159,
      "癤": 5160,
      "癧": 5161,
      "癩": 5162,
      "癬": 5163,
      "癭": 5164,
      "癰": 5165,
      "癶": 5166,
      "癸": 5167,
      "発": 5168,
      "登": 5169,
      "發": 5170,
      "白": 5171,
      "百": 5172,
      "皂": 5173,
      "的": 5174,
      "皆": 5175,
      "皇": 5176,
      "皋": 5177,
      "皐": 5178,
      "皓": 5179,
      "皞": 5180,
      "皠": 5181,
      "皮": 5182,
      "皱": 5183,
      "皿": 5184,
      "盂": 5185,
      "盃": 5186,
      "盆": 5187,
      "盈": 5188,
      "益": 5189,
      "监": 5190,
      "盒": 5191,
      "盖": 5192,
      "盗": 5193,
      "盘": 5194,
      "盛": 5195,
      "盜": 5196,
      "盞": 5197,
      "盟": 5198,
      "盡": 5199,
      "監": 5200,
      "盤": 5201,
      "盧": 5202,
      "盪": 5203,
      "目": 5204,
      "盲": 5205,
      "直": 5206,
      "相": 5207,
      "盼": 5208,
      "盾": 5209,
      "省": 5210,
      "眄": 5211,
      "眈": 5212,
      "眉": 5213,
      "看": 5214,
      "県": 5215,
      "眞": 5216,
      "真": 5217,
      "眠": 5218,
      "眺": 5219,
      "眼": 5220,
      "眾": 5221,
      "着": 5222,
      "睛": 5223,
      "睡": 5224,
      "督": 5225,
      "睦": 5226,
      "睹": 5227,
      "睺": 5228,
      "睿": 5229,
      "瞋": 5230,
      "瞑": 5231,
      "瞞": 5232,
      "瞠": 5233,
      "瞬": 5234,
      "瞭": 5235,
      "瞰": 5236,
      "瞳": 5237,
      "瞻": 5238,
      "瞼": 5239,
      "瞿": 5240,
      "矁": 5241,
      "矗": 5242,
      "矛": 5243,
      "矜": 5244,
      "矢": 5245,
      "矣": 5246,
      "知": 5247,
      "矩": 5248,
      "短": 5249,
      "矮": 5250,
      "矯": 5251,
      "石": 5252,
      "矿": 5253,
      "码": 5254,
      "砂": 5255,
      "砒": 5256,
      "研": 5257,
      "砕": 5258,
      "砦": 5259,
      "砬": 5260,
      "砲": 5261,
      "破": 5262,
      "硏": 5263,
      "硕": 5264,
      "硚": 5265,
      "硝": 5266,
      "硫": 5267,
      "硬": 5268,
      "确": 5269,
      "硯": 5270,
      "硾": 5271,
      "碁": 5272,
      "碇": 5273,
      "碍": 5274,
      "碎": 5275,
      "碑": 5276,
      "碗": 5277,
      "碣": 5278,
      "碧": 5279,
      "碩": 5280,
      "確": 5281,
      "磁": 5282,
      "磊": 5283,
      "磋": 5284,
      "磐": 5285,
      "磧": 5286,
      "磨": 5287,
      "磬": 5288,
      "磯": 5289,
      "磻": 5290,
      "礁": 5291,
      "礎": 5292,
      "礙": 5293,
      "礨": 5294,
      "礫": 5295,
      "礬": 5296,
      "礴": 5297,
      "示": 5298,
      "礼": 5299,
      "社": 5300,
      "祀": 5301,
      "祁": 5302,
      "祂": 5303,
      "祇": 5304,
      "祈": 5305,
      "祉": 5306,
      "祐": 5307,
      "祓": 5308,
      "祕": 5309,
      "祖": 5310,
      "祗": 5311,
      "祚": 5312,
      "祛": 5313,
      "祜": 5314,
      "祝": 5315,
      "神": 5316,
      "祟": 5317,
      "祠": 5318,
      "祥": 5319,
      "票": 5320,
      "祭": 5321,
      "祸": 5322,
      "祺": 5323,
      "祿": 5324,
      "禁": 5325,
      "禄": 5326,
      "禅": 5327,
      "禊": 5328,
      "禍": 5329,
      "禎": 5330,
      "福": 5331,
      "禦": 5332,
      "禧": 5333,
      "禪": 5334,
      "禮": 5335,
      "禱": 5336,
      "禹": 5337,
      "离": 5338,
      "禽": 5339,
      "禾": 5340,
      "禿": 5341,
      "秀": 5342,
      "私": 5343,
      "秉": 5344,
      "秋": 5345,
      "种": 5346,
      "科": 5347,
      "秒": 5348,
      "秘": 5349,
      "租": 5350,
      "秣": 5351,
      "秦": 5352,
      "秧": 5353,
      "秩": 5354,
      "秪": 5355,
      "积": 5356,
      "称": 5357,
      "移": 5358,
      "稀": 5359,
      "稅": 5360,
      "稈": 5361,
      "程": 5362,
      "税": 5363,
      "稙": 5364,
      "稚": 5365,
      "稜": 5366,
      "稟": 5367,
      "種": 5368,
      "稱": 5369,
      "稲": 5370,
      "稳": 5371,
      "稶": 5372,
      "稷": 5373,
      "稻": 5374,
      "稼": 5375,
      "稽": 5376,
      "稿": 5377,
      "穀": 5378,
      "穂": 5379,
      "穆": 5380,
      "穌": 5381,
      "積": 5382,
      "穎": 5383,
      "穗": 5384,
      "穡": 5385,
      "穢": 5386,
      "穩": 5387,
      "穫": 5388,
      "穴": 5389,
      "究": 5390,
      "穷": 5391,
      "穹": 5392,
      "空": 5393,
      "穽": 5394,
      "穿": 5395,
      "突": 5396,
      "窄": 5397,
      "窒": 5398,
      "窓": 5399,
      "窗": 5400,
      "窟": 5401,
      "窠": 5402,
      "窢": 5403,
      "窩": 5404,
      "窪": 5405,
      "窮": 5406,
      "窯": 5407,
      "窺": 5408,
      "竅": 5409,
      "竇": 5410,
      "竈": 5411,
      "立": 5412,
      "竖": 5413,
      "站": 5414,
      "竜": 5415,
      "竝": 5416,
      "竞": 5417,
      "竟": 5418,
      "章": 5419,
      "竣": 5420,
      "童": 5421,
      "竭": 5422,
      "端": 5423,
      "競": 5424,
      "竹": 5425,
      "竺": 5426,
      "竿": 5427,
      "笏": 5428,
      "笑": 5429,
      "笔": 5430,
      "笛": 5431,
      "笞": 5432,
      "笠": 5433,
      "符": 5434,
      "笨": 5435,
      "第": 5436,
      "笭": 5437,
      "笮": 5438,
      "笹": 5439,
      "筆": 5440,
      "等": 5441,
      "筋": 5442,
      "筍": 5443,
      "筏": 5444,
      "筑": 5445,
      "筒": 5446,
      "答": 5447,
      "策": 5448,
      "筠": 5449,
      "筮": 5450,
      "筵": 5451,
      "签": 5452,
      "简": 5453,
      "箇": 5454,
      "箋": 5455,
      "箏": 5456,
      "箕": 5457,
      "算": 5458,
      "箚": 5459,
      "管": 5460,
      "箭": 5461,
      "箱": 5462,
      "箴": 5463,
      "箸": 5464,
      "節": 5465,
      "範": 5466,
      "篆": 5467,
      "篇": 5468,
      "築": 5469,
      "篠": 5470,
      "篤": 5471,
      "篪": 5472,
      "篴": 5473,
      "簋": 5474,
      "簒": 5475,
      "簡": 5476,
      "簧": 5477,
      "簪": 5478,
      "簽": 5479,
      "簾": 5480,
      "簿": 5481,
      "籃": 5482,
      "籌": 5483,
      "籍": 5484,
      "籠": 5485,
      "籤": 5486,
      "籬": 5487,
      "米": 5488,
      "类": 5489,
      "籽": 5490,
      "粉": 5491,
      "粋": 5492,
      "粑": 5493,
      "粒": 5494,
      "粕": 5495,
      "粗": 5496,
      "粘": 5497,
      "粛": 5498,
      "粟": 5499,
      "粤": 5500,
      "粥": 5501,
      "粧": 5502,
      "粲": 5503,
      "粹": 5504,
      "精": 5505,
      "糊": 5506,
      "糕": 5507,
      "糖": 5508,
      "糞": 5509,
      "糟": 5510,
      "糠": 5511,
      "糧": 5512,
      "糸": 5513,
      "系": 5514,
      "紀": 5515,
      "紂": 5516,
      "約": 5517,
      "紅": 5518,
      "紋": 5519,
      "納": 5520,
      "紐": 5521,
      "紓": 5522,
      "純": 5523,
      "紗": 5524,
      "紙": 5525,
      "級": 5526,
      "紛": 5527,
      "紜": 5528,
      "素": 5529,
      "紡": 5530,
      "索": 5531,
      "紫": 5532,
      "紬": 5533,
      "累": 5534,
      "細": 5535,
      "紳": 5536,
      "紹": 5537,
      "紺": 5538,
      "終": 5539,
      "絃": 5540,
      "組": 5541,
      "絅": 5542,
      "絆": 5543,
      "絉": 5544,
      "経": 5545,
      "結": 5546,
      "絕": 5547,
      "絜": 5548,
      "絞": 5549,
      "絡": 5550,
      "給": 5551,
      "絨": 5552,
      "統": 5553,
      "絲": 5554,
      "絵": 5555,
      "絶": 5556,
      "絹": 5557,
      "絺": 5558,
      "絼": 5559,
      "經": 5560,
      "継": 5561,
      "続": 5562,
      "綜": 5563,
      "綠": 5564,
      "綦": 5565,
      "綬": 5566,
      "維": 5567,
      "綱": 5568,
      "網": 5569,
      "綴": 5570,
      "綺": 5571,
      "綻": 5572,
      "綾": 5573,
      "綿": 5574,
      "緊": 5575,
      "総": 5576,
      "緑": 5577,
      "緒": 5578,
      "緖": 5579,
      "緘": 5580,
      "線": 5581,
      "緞": 5582,
      "締": 5583,
      "緣": 5584,
      "編": 5585,
      "緩": 5586,
      "緯": 5587,
      "練": 5588,
      "緻": 5589,
      "縁": 5590,
      "縄": 5591,
      "縛": 5592,
      "縞": 5593,
      "縣": 5594,
      "縦": 5595,
      "縫": 5596,
      "縭": 5597,
      "縮": 5598,
      "縯": 5599,
      "縱": 5600,
      "縷": 5601,
      "總": 5602,
      "績": 5603,
      "繁": 5604,
      "繇": 5605,
      "繊": 5606,
      "繋": 5607,
      "繒": 5608,
      "織": 5609,
      "繕": 5610,
      "繞": 5611,
      "繡": 5612,
      "繩": 5613,
      "繪": 5614,
      "繫": 5615,
      "繭": 5616,
      "繰": 5617,
      "繳": 5618,
      "繹": 5619,
      "繼": 5620,
      "纂": 5621,
      "纈": 5622,
      "續": 5623,
      "纏": 5624,
      "纓": 5625,
      "纖": 5626,
      "纠": 5627,
      "红": 5628,
      "约": 5629,
      "级": 5630,
      "纪": 5631,
      "纫": 5632,
      "纬": 5633,
      "纯": 5634,
      "纳": 5635,
      "纶": 5636,
      "纷": 5637,
      "纸": 5638,
      "纹": 5639,
      "纽": 5640,
      "线": 5641,
      "练": 5642,
      "组": 5643,
      "细": 5644,
      "织": 5645,
      "终": 5646,
      "绍": 5647,
      "经": 5648,
      "绑": 5649,
      "结": 5650,
      "绕": 5651,
      "绘": 5652,
      "给": 5653,
      "络": 5654,
      "绝": 5655,
      "统": 5656,
      "继": 5657,
      "绩": 5658,
      "续": 5659,
      "维": 5660,
      "绿": 5661,
      "缔": 5662,
      "缘": 5663,
      "缶": 5664,
      "缸": 5665,
      "缺": 5666,
      "缽": 5667,
      "缾": 5668,
      "罐": 5669,
      "网": 5670,
      "罗": 5671,
      "罚": 5672,
      "罛": 5673,
      "罪": 5674,
      "置": 5675,
      "罰": 5676,
      "署": 5677,
      "罵": 5678,
      "罷": 5679,
      "羂": 5680,
      "羅": 5681,
      "羈": 5682,
      "羊": 5683,
      "羌": 5684,
      "美": 5685,
      "羞": 5686,
      "群": 5687,
      "羨": 5688,
      "義": 5689,
      "羲": 5690,
      "羹": 5691,
      "羽": 5692,
      "羿": 5693,
      "翁": 5694,
      "翅": 5695,
      "翊": 5696,
      "翌": 5697,
      "翎": 5698,
      "習": 5699,
      "翔": 5700,
      "翕": 5701,
      "翟": 5702,
      "翠": 5703,
      "翩": 5704,
      "翰": 5705,
      "翳": 5706,
      "翻": 5707,
      "翼": 5708,
      "耀": 5709,
      "老": 5710,
      "考": 5711,
      "者": 5712,
      "耆": 5713,
      "而": 5714,
      "耐": 5715,
      "耕": 5716,
      "耗": 5717,
      "耨": 5718,
      "耭": 5719,
      "耳": 5720,
      "耶": 5721,
      "耽": 5722,
      "耿": 5723,
      "聃": 5724,
      "聆": 5725,
      "聊": 5726,
      "职": 5727,
      "联": 5728,
      "聖": 5729,
      "聘": 5730,
      "聚": 5731,
      "聞": 5732,
      "聯": 5733,
      "聰": 5734,
      "聲": 5735,
      "聴": 5736,
      "職": 5737,
      "聽": 5738,
      "聾": 5739,
      "肃": 5740,
      "肅": 5741,
      "肆": 5742,
      "肇": 5743,
      "肉": 5744,
      "肋": 5745,
      "肌": 5746,
      "肖": 5747,
      "肚": 5748,
      "肝": 5749,
      "股": 5750,
      "肢": 5751,
      "肤": 5752,
      "肥": 5753,
      "肩": 5754,
      "肪": 5755,
      "肯": 5756,
      "育": 5757,
      "肺": 5758,
      "胃": 5759,
      "胄": 5760,
      "胆": 5761,
      "背": 5762,
      "胎": 5763,
      "胚": 5764,
      "胛": 5765,
      "胜": 5766,
      "胞": 5767,
      "胡": 5768,
      "胤": 5769,
      "胥": 5770,
      "胱": 5771,
      "胴": 5772,
      "胸": 5773,
      "胺": 5774,
      "能": 5775,
      "脂": 5776,
      "脃": 5777,
      "脅": 5778,
      "脆": 5779,
      "脇": 5780,
      "脈": 5781,
      "脊": 5782,
      "脑": 5783,
      "脚": 5784,
      "脣": 5785,
      "脩": 5786,
      "脫": 5787,
      "脬": 5788,
      "脯": 5789,
      "脱": 5790,
      "脳": 5791,
      "脷": 5792,
      "脹": 5793,
      "脾": 5794,
      "腊": 5795,
      "腎": 5796,
      "腐": 5797,
      "腑": 5798,
      "腔": 5799,
      "腕": 5800,
      "腥": 5801,
      "腦": 5802,
      "腫": 5803,
      "腰": 5804,
      "腱": 5805,
      "腸": 5806,
      "腹": 5807,
      "腺": 5808,
      "腻": 5809,
      "腿": 5810,
      "膀": 5811,
      "膆": 5812,
      "膏": 5813,
      "膑": 5814,
      "膚": 5815,
      "膜": 5816,
      "膝": 5817,
      "膠": 5818,
      "膣": 5819,
      "膨": 5820,
      "膳": 5821,
      "膽": 5822,
      "膾": 5823,
      "膿": 5824,
      "臂": 5825,
      "臓": 5826,
      "臘": 5827,
      "臟": 5828,
      "臣": 5829,
      "臥": 5830,
      "臧": 5831,
      "臨": 5832,
      "自": 5833,
      "臭": 5834,
      "臯": 5835,
      "至": 5836,
      "致": 5837,
      "臺": 5838,
      "臼": 5839,
      "臾": 5840,
      "舂": 5841,
      "舅": 5842,
      "與": 5843,
      "興": 5844,
      "舉": 5845,
      "舊": 5846,
      "舌": 5847,
      "舍": 5848,
      "舎": 5849,
      "舐": 5850,
      "舒": 5851,
      "舗": 5852,
      "舜": 5853,
      "舞": 5854,
      "舟": 5855,
      "航": 5856,
      "般": 5857,
      "舶": 5858,
      "船": 5859,
      "艀": 5860,
      "艅": 5861,
      "艇": 5862,
      "艦": 5863,
      "艮": 5864,
      "良": 5865,
      "色": 5866,
      "艶": 5867,
      "艺": 5868,
      "艾": 5869,
      "节": 5870,
      "芃": 5871,
      "芒": 5872,
      "芙": 5873,
      "芝": 5874,
      "芥": 5875,
      "芩": 5876,
      "芪": 5877,
      "芬": 5878,
      "芭": 5879,
      "芯": 5880,
      "花": 5881,
      "芳": 5882,
      "芷": 5883,
      "芸": 5884,
      "芹": 5885,
      "芻": 5886,
      "芽": 5887,
      "芾": 5888,
      "苅": 5889,
      "苍": 5890,
      "苏": 5891,
      "苑": 5892,
      "苔": 5893,
      "苗": 5894,
      "苙": 5895,
      "苛": 5896,
      "苞": 5897,
      "苟": 5898,
      "苡": 5899,
      "苣": 5900,
      "若": 5901,
      "苦": 5902,
      "苧": 5903,
      "苫": 5904,
      "英": 5905,
      "苴": 5906,
      "茂": 5907,
      "范": 5908,
      "茅": 5909,
      "茉": 5910,
      "茗": 5911,
      "茜": 5912,
      "茨": 5913,
      "茫": 5914,
      "茯": 5915,
      "茱": 5916,
      "茴": 5917,
      "茶": 5918,
      "荀": 5919,
      "荆": 5920,
      "荇": 5921,
      "草": 5922,
      "荊": 5923,
      "荐": 5924,
      "荒": 5925,
      "荔": 5926,
      "荘": 5927,
      "荣": 5928,
      "荫": 5929,
      "荳": 5930,
      "荷": 5931,
      "荻": 5932,
      "荼": 5933,
      "莅": 5934,
      "莇": 5935,
      "莉": 5936,
      "莊": 5937,
      "莎": 5938,
      "莓": 5939,
      "莖": 5940,
      "莞": 5941,
      "莧": 5942,
      "莫": 5943,
      "莱": 5944,
      "莲": 5945,
      "获": 5946,
      "莹": 5947,
      "莽": 5948,
      "菁": 5949,
      "菅": 5950,
      "菉": 5951,
      "菊": 5952,
      "菌": 5953,
      "菓": 5954,
      "菜": 5955,
      "菟": 5956,
      "菩": 5957,
      "華": 5958,
      "菰": 5959,
      "菱": 5960,
      "菲": 5961,
      "菴": 5962,
      "萄": 5963,
      "萊": 5964,
      "萌": 5965,
      "萍": 5966,
      "萎": 5967,
      "萝": 5968,
      "营": 5969,
      "萧": 5970,
      "萨": 5971,
      "萬": 5972,
      "萱": 5973,
      "萵": 5974,
      "萸": 5975,
      "萼": 5976,
      "落": 5977,
      "萾": 5978,
      "葉": 5979,
      "著": 5980,
      "葛": 5981,
      "葡": 5982,
      "董": 5983,
      "葦": 5984,
      "葬": 5985,
      "葱": 5986,
      "葳": 5987,
      "葵": 5988,
      "葶": 5989,
      "蒋": 5990,
      "蒐": 5991,
      "蒔": 5992,
      "蒗": 5993,
      "蒙": 5994,
      "蒲": 5995,
      "蒸": 5996,
      "蒺": 5997,
      "蒼": 5998,
      "蒿": 5999,
      "蓄": 6000,
      "蓉": 6001,
      "蓋": 6002,
      "蓚": 6003,
      "蓝": 6004,
      "蓬": 6005,
      "蓮": 6006,
      "蓳": 6007,
      "蓼": 6008,
      "蔑": 6009,
      "蔓": 6010,
      "蔘": 6011,
      "蔚": 6012,
      "蔡": 6013,
      "蔣": 6014,
      "蔥": 6015,
      "蔭": 6016,
      "蔵": 6017,
      "蔽": 6018,
      "蕃": 6019,
      "蕊": 6020,
      "蕎": 6021,
      "蕙": 6022,
      "蕨": 6023,
      "蕩": 6024,
      "蕪": 6025,
      "蕭": 6026,
      "蕴": 6027,
      "蕾": 6028,
      "薄": 6029,
      "薏": 6030,
      "薙": 6031,
      "薛": 6032,
      "薦": 6033,
      "薨": 6034,
      "薩": 6035,
      "薪": 6036,
      "薫": 6037,
      "薬": 6038,
      "薯": 6039,
      "薰": 6040,
      "薺": 6041,
      "藁": 6042,
      "藉": 6043,
      "藍": 6044,
      "藏": 6045,
      "藐": 6046,
      "藕": 6047,
      "藜": 6048,
      "藝": 6049,
      "藤": 6050,
      "藥": 6051,
      "藩": 6052,
      "藪": 6053,
      "藲": 6054,
      "藶": 6055,
      "藻": 6056,
      "蘆": 6057,
      "蘇": 6058,
      "蘊": 6059,
      "蘗": 6060,
      "蘭": 6061,
      "蘿": 6062,
      "虎": 6063,
      "虐": 6064,
      "虔": 6065,
      "處": 6066,
      "虚": 6067,
      "虛": 6068,
      "虜": 6069,
      "虞": 6070,
      "號": 6071,
      "虧": 6072,
      "虫": 6073,
      "虹": 6074,
      "虽": 6075,
      "虾": 6076,
      "蚁": 6077,
      "蚂": 6078,
      "蚊": 6079,
      "蚌": 6080,
      "蚓": 6081,
      "蚕": 6082,
      "蚩": 6083,
      "蚯": 6084,
      "蛇": 6085,
      "蛋": 6086,
      "蛍": 6087,
      "蛙": 6088,
      "蛟": 6089,
      "蛾": 6090,
      "蜀": 6091,
      "蜂": 6092,
      "蜃": 6093,
      "蜚": 6094,
      "蜜": 6095,
      "蜤": 6096,
      "蝕": 6097,
      "蝟": 6098,
      "蝦": 6099,
      "蝨": 6100,
      "蝴": 6101,
      "蝶": 6102,
      "蝸": 6103,
      "螂": 6104,
      "融": 6105,
      "螢": 6106,
      "螳": 6107,
      "螺": 6108,
      "蟄": 6109,
      "蟛": 6110,
      "蟬": 6111,
      "蟲": 6112,
      "蟹": 6113,
      "蟻": 6114,
      "蟾": 6115,
      "蠅": 6116,
      "蠟": 6117,
      "蠱": 6118,
      "蠶": 6119,
      "蠻": 6120,
      "血": 6121,
      "衆": 6122,
      "行": 6123,
      "衍": 6124,
      "術": 6125,
      "街": 6126,
      "衙": 6127,
      "衛": 6128,
      "衝": 6129,
      "衡": 6130,
      "衣": 6131,
      "补": 6132,
      "表": 6133,
      "衫": 6134,
      "衰": 6135,
      "衲": 6136,
      "衷": 6137,
      "衾": 6138,
      "衿": 6139,
      "袁": 6140,
      "袈": 6141,
      "袋": 6142,
      "袍": 6143,
      "袖": 6144,
      "袞": 6145,
      "被": 6146,
      "裁": 6147,
      "裂": 6148,
      "裄": 6149,
      "装": 6150,
      "裏": 6151,
      "裔": 6152,
      "裕": 6153,
      "裘": 6154,
      "補": 6155,
      "裝": 6156,
      "裟": 6157,
      "裡": 6158,
      "裤": 6159,
      "裨": 6160,
      "裳": 6161,
      "裴": 6162,
      "裵": 6163,
      "裸": 6164,
      "製": 6165,
      "複": 6166,
      "褐": 6167,
      "褒": 6168,
      "褚": 6169,
      "褥": 6170,
      "褪": 6171,
      "襄": 6172,
      "襖": 6173,
      "襟": 6174,
      "襪": 6175,
      "襲": 6176,
      "西": 6177,
      "要": 6178,
      "覆": 6179,
      "覇": 6180,
      "見": 6181,
      "規": 6182,
      "覓": 6183,
      "視": 6184,
      "覚": 6185,
      "覡": 6186,
      "覧": 6187,
      "親": 6188,
      "覫": 6189,
      "観": 6190,
      "覺": 6191,
      "覽": 6192,
      "觀": 6193,
      "见": 6194,
      "观": 6195,
      "规": 6196,
      "视": 6197,
      "览": 6198,
      "觉": 6199,
      "角": 6200,
      "解": 6201,
      "触": 6202,
      "觴": 6203,
      "觸": 6204,
      "言": 6205,
      "訂": 6206,
      "訃": 6207,
      "計": 6208,
      "訊": 6209,
      "討": 6210,
      "訓": 6211,
      "訖": 6212,
      "託": 6213,
      "記": 6214,
      "訟": 6215,
      "訣": 6216,
      "訥": 6217,
      "訪": 6218,
      "設": 6219,
      "許": 6220,
      "訳": 6221,
      "訴": 6222,
      "訶": 6223,
      "診": 6224,
      "註": 6225,
      "証": 6226,
      "詈": 6227,
      "詐": 6228,
      "詑": 6229,
      "詔": 6230,
      "評": 6231,
      "詞": 6232,
      "詠": 6233,
      "詢": 6234,
      "詣": 6235,
      "試": 6236,
      "詩": 6237,
      "詫": 6238,
      "詮": 6239,
      "詰": 6240,
      "話": 6241,
      "該": 6242,
      "詳": 6243,
      "詵": 6244,
      "詹": 6245,
      "詿": 6246,
      "誅": 6247,
      "誇": 6248,
      "誉": 6249,
      "誌": 6250,
      "認": 6251,
      "誓": 6252,
      "誕": 6253,
      "誘": 6254,
      "語": 6255,
      "誠": 6256,
      "誣": 6257,
      "誤": 6258,
      "誥": 6259,
      "誦": 6260,
      "誨": 6261,
      "說": 6262,
      "説": 6263,
      "読": 6264,
      "誰": 6265,
      "課": 6266,
      "誹": 6267,
      "誼": 6268,
      "調": 6269,
      "諂": 6270,
      "談": 6271,
      "請": 6272,
      "諍": 6273,
      "諏": 6274,
      "諒": 6275,
      "論": 6276,
      "諗": 6277,
      "諛": 6278,
      "諜": 6279,
      "諡": 6280,
      "諤": 6281,
      "諦": 6282,
      "諧": 6283,
      "諫": 6284,
      "諭": 6285,
      "諮": 6286,
      "諱": 6287,
      "諶": 6288,
      "諷": 6289,
      "諸": 6290,
      "諺": 6291,
      "諾": 6292,
      "謀": 6293,
      "謁": 6294,
      "謂": 6295,
      "謄": 6296,
      "謇": 6297,
      "謎": 6298,
      "謔": 6299,
      "謗": 6300,
      "謙": 6301,
      "謚": 6302,
      "講": 6303,
      "謝": 6304,
      "謠": 6305,
      "謡": 6306,
      "謨": 6307,
      "謩": 6308,
      "謬": 6309,
      "謹": 6310,
      "譁": 6311,
      "證": 6312,
      "譏": 6313,
      "識": 6314,
      "譚": 6315,
      "譜": 6316,
      "警": 6317,
      "譯": 6318,
      "議": 6319,
      "譲": 6320,
      "護": 6321,
      "譽": 6322,
      "讀": 6323,
      "讃": 6324,
      "變": 6325,
      "讌": 6326,
      "讎": 6327,
      "讐": 6328,
      "讒": 6329,
      "讓": 6330,
      "讖": 6331,
      "讚": 6332,
      "计": 6333,
      "订": 6334,
      "认": 6335,
      "让": 6336,
      "议": 6337,
      "讯": 6338,
      "记": 6339,
      "讲": 6340,
      "许": 6341,
      "论": 6342,
      "讼": 6343,
      "讽": 6344,
      "设": 6345,
      "访": 6346,
      "证": 6347,
      "评": 6348,
      "识": 6349,
      "诉": 6350,
      "诊": 6351,
      "词": 6352,
      "译": 6353,
      "试": 6354,
      "诗": 6355,
      "话": 6356,
      "诞": 6357,
      "诠": 6358,
      "询": 6359,
      "该": 6360,
      "详": 6361,
      "诬": 6362,
      "语": 6363,
      "误": 6364,
      "说": 6365,
      "请": 6366,
      "诸": 6367,
      "诺": 6368,
      "读": 6369,
      "调": 6370,
      "谈": 6371,
      "谊": 6372,
      "谢": 6373,
      "谷": 6374,
      "谿": 6375,
      "豆": 6376,
      "豈": 6377,
      "豊": 6378,
      "豐": 6379,
      "豕": 6380,
      "豚": 6381,
      "象": 6382,
      "豪": 6383,
      "豫": 6384,
      "豹": 6385,
      "豼": 6386,
      "貊": 6387,
      "貌": 6388,
      "貓": 6389,
      "貝": 6390,
      "貞": 6391,
      "負": 6392,
      "財": 6393,
      "貢": 6394,
      "貧": 6395,
      "貨": 6396,
      "販": 6397,
      "貪": 6398,
      "貫": 6399,
      "責": 6400,
      "貯": 6401,
      "貰": 6402,
      "貳": 6403,
      "貴": 6404,
      "貶": 6405,
      "買": 6406,
      "貸": 6407,
      "費": 6408,
      "貼": 6409,
      "貿": 6410,
      "賀": 6411,
      "賁": 6412,
      "賂": 6413,
      "賃": 6414,
      "資": 6415,
      "賈": 6416,
      "賊": 6417,
      "賓": 6418,
      "賚": 6419,
      "賛": 6420,
      "賜": 6421,
      "賞": 6422,
      "賠": 6423,
      "賢": 6424,
      "賣": 6425,
      "賤": 6426,
      "賦": 6427,
      "質": 6428,
      "賭": 6429,
      "賴": 6430,
      "賻": 6431,
      "購": 6432,
      "賽": 6433,
      "贄": 6434,
      "贅": 6435,
      "贈": 6436,
      "贊": 6437,
      "贖": 6438,
      "贝": 6439,
      "负": 6440,
      "贡": 6441,
      "财": 6442,
      "责": 6443,
      "贤": 6444,
      "货": 6445,
      "质": 6446,
      "购": 6447,
      "贵": 6448,
      "贷": 6449,
      "贸": 6450,
      "费": 6451,
      "贾": 6452,
      "资": 6453,
      "赋": 6454,
      "赏": 6455,
      "赔": 6456,
      "赛": 6457,
      "赞": 6458,
      "赣": 6459,
      "赤": 6460,
      "赦": 6461,
      "赫": 6462,
      "走": 6463,
      "赴": 6464,
      "赵": 6465,
      "赶": 6466,
      "起": 6467,
      "超": 6468,
      "越": 6469,
      "趙": 6470,
      "趣": 6471,
      "趨": 6472,
      "足": 6473,
      "趵": 6474,
      "趺": 6475,
      "趾": 6476,
      "跃": 6477,
      "跆": 6478,
      "跋": 6479,
      "跌": 6480,
      "跏": 6481,
      "跑": 6482,
      "跖": 6483,
      "距": 6484,
      "跟": 6485,
      "跡": 6486,
      "跨": 6487,
      "路": 6488,
      "跳": 6489,
      "践": 6490,
      "踊": 6491,
      "踏": 6492,
      "踐": 6493,
      "踪": 6494,
      "踰": 6495,
      "踵": 6496,
      "蹄": 6497,
      "蹇": 6498,
      "蹈": 6499,
      "蹟": 6500,
      "蹤": 6501,
      "蹭": 6502,
      "蹴": 6503,
      "躇": 6504,
      "躊": 6505,
      "躍": 6506,
      "身": 6507,
      "躬": 6508,
      "軀": 6509,
      "軆": 6510,
      "車": 6511,
      "軌": 6512,
      "軍": 6513,
      "軒": 6514,
      "軟": 6515,
      "転": 6516,
      "軮": 6517,
      "軸": 6518,
      "軺": 6519,
      "軻": 6520,
      "軽": 6521,
      "軾": 6522,
      "軿": 6523,
      "較": 6524,
      "載": 6525,
      "輓": 6526,
      "輔": 6527,
      "輕": 6528,
      "輛": 6529,
      "輜": 6530,
      "輝": 6531,
      "輦": 6532,
      "輩": 6533,
      "輪": 6534,
      "輯": 6535,
      "輸": 6536,
      "輻": 6537,
      "輿": 6538,
      "轄": 6539,
      "轅": 6540,
      "轉": 6541,
      "轍": 6542,
      "车": 6543,
      "转": 6544,
      "轮": 6545,
      "软": 6546,
      "轻": 6547,
      "载": 6548,
      "较": 6549,
      "辉": 6550,
      "辑": 6551,
      "输": 6552,
      "辖": 6553,
      "辛": 6554,
      "辜": 6555,
      "辞": 6556,
      "辟": 6557,
      "辣": 6558,
      "辦": 6559,
      "辨": 6560,
      "辭": 6561,
      "辯": 6562,
      "辰": 6563,
      "辱": 6564,
      "農": 6565,
      "边": 6566,
      "辺": 6567,
      "辻": 6568,
      "込": 6569,
      "辽": 6570,
      "达": 6571,
      "辿": 6572,
      "迂": 6573,
      "迅": 6574,
      "过": 6575,
      "迎": 6576,
      "运": 6577,
      "近": 6578,
      "返": 6579,
      "还": 6580,
      "这": 6581,
      "进": 6582,
      "远": 6583,
      "违": 6584,
      "连": 6585,
      "迟": 6586,
      "迦": 6587,
      "迪": 6588,
      "迫": 6589,
      "述": 6590,
      "迴": 6591,
      "迷": 6592,
      "迹": 6593,
      "追": 6594,
      "退": 6595,
      "送": 6596,
      "适": 6597,
      "逃": 6598,
      "逅": 6599,
      "逆": 6600,
      "选": 6601,
      "逊": 6602,
      "逍": 6603,
      "透": 6604,
      "逐": 6605,
      "递": 6606,
      "途": 6607,
      "逕": 6608,
      "這": 6609,
      "通": 6610,
      "逝": 6611,
      "逞": 6612,
      "速": 6613,
      "造": 6614,
      "逢": 6615,
      "連": 6616,
      "週": 6617,
      "進": 6618,
      "逸": 6619,
      "逼": 6620,
      "逾": 6621,
      "遁": 6622,
      "遂": 6623,
      "遅": 6624,
      "遇": 6625,
      "遊": 6626,
      "運": 6627,
      "遍": 6628,
      "過": 6629,
      "遐": 6630,
      "遑": 6631,
      "道": 6632,
      "達": 6633,
      "違": 6634,
      "遗": 6635,
      "遙": 6636,
      "遜": 6637,
      "遞": 6638,
      "遠": 6639,
      "遣": 6640,
      "遥": 6641,
      "遨": 6642,
      "適": 6643,
      "遭": 6644,
      "遮": 6645,
      "遯": 6646,
      "遲": 6647,
      "遵": 6648,
      "遷": 6649,
      "選": 6650,
      "遺": 6651,
      "遼": 6652,
      "遽": 6653,
      "避": 6654,
      "邀": 6655,
      "邁": 6656,
      "邂": 6657,
      "還": 6658,
      "邈": 6659,
      "邊": 6660,
      "邏": 6661,
      "邑": 6662,
      "邓": 6663,
      "邙": 6664,
      "邢": 6665,
      "那": 6666,
      "邦": 6667,
      "邪": 6668,
      "邮": 6669,
      "邯": 6670,
      "邱": 6671,
      "邵": 6672,
      "邶": 6673,
      "邸": 6674,
      "邻": 6675,
      "邽": 6676,
      "郁": 6677,
      "郊": 6678,
      "郎": 6679,
      "郑": 6680,
      "郝": 6681,
      "郞": 6682,
      "郡": 6683,
      "部": 6684,
      "郭": 6685,
      "郵": 6686,
      "郷": 6687,
      "郸": 6688,
      "都": 6689,
      "郾": 6690,
      "鄉": 6691,
      "鄒": 6692,
      "鄕": 6693,
      "鄗": 6694,
      "鄘": 6695,
      "鄙": 6696,
      "鄞": 6697,
      "鄢": 6698,
      "鄤": 6699,
      "鄧": 6700,
      "鄫": 6701,
      "鄭": 6702,
      "鄮": 6703,
      "鄰": 6704,
      "鄱": 6705,
      "酉": 6706,
      "酌": 6707,
      "配": 6708,
      "酎": 6709,
      "酒": 6710,
      "酔": 6711,
      "酖": 6712,
      "酢": 6713,
      "酣": 6714,
      "酪": 6715,
      "酬": 6716,
      "酰": 6717,
      "酵": 6718,
      "酷": 6719,
      "酸": 6720,
      "醇": 6721,
      "醉": 6722,
      "醋": 6723,
      "醍": 6724,
      "醐": 6725,
      "醒": 6726,
      "醜": 6727,
      "醤": 6728,
      "醫": 6729,
      "醬": 6730,
      "醮": 6731,
      "醱": 6732,
      "醴": 6733,
      "醸": 6734,
      "釀": 6735,
      "采": 6736,
      "釈": 6737,
      "释": 6738,
      "釋": 6739,
      "里": 6740,
      "重": 6741,
      "野": 6742,
      "量": 6743,
      "釐": 6744,
      "金": 6745,
      "釗": 6746,
      "釘": 6747,
      "釜": 6748,
      "針": 6749,
      "釣": 6750,
      "釧": 6751,
      "釵": 6752,
      "鈍": 6753,
      "鈞": 6754,
      "鈴": 6755,
      "鈺": 6756,
      "鉃": 6757,
      "鉄": 6758,
      "鉅": 6759,
      "鉉": 6760,
      "鉋": 6761,
      "鉛": 6762,
      "鉢": 6763,
      "鉤": 6764,
      "鉦": 6765,
      "鉴": 6766,
      "銀": 6767,
      "銃": 6768,
      "銅": 6769,
      "銓": 6770,
      "銘": 6771,
      "銚": 6772,
      "銜": 6773,
      "銭": 6774,
      "銳": 6775,
      "銶": 6776,
      "銹": 6777,
      "鋒": 6778,
      "鋪": 6779,
      "鋭": 6780,
      "鋸": 6781,
      "鋼": 6782,
      "錄": 6783,
      "錆": 6784,
      "錐": 6785,
      "錚": 6786,
      "錠": 6787,
      "錢": 6788,
      "錦": 6789,
      "錧": 6790,
      "錫": 6791,
      "錮": 6792,
      "錯": 6793,
      "録": 6794,
      "鍊": 6795,
      "鍋": 6796,
      "鍛": 6797,
      "鍮": 6798,
      "鍵": 6799,
      "鍼": 6800,
      "鍾": 6801,
      "鎌": 6802,
      "鎔": 6803,
      "鎖": 6804,
      "鎣": 6805,
      "鎧": 6806,
      "鎬": 6807,
      "鎭": 6808,
      "鎮": 6809,
      "鏃": 6810,
      "鏑": 6811,
      "鏞": 6812,
      "鏡": 6813,
      "鏤": 6814,
      "鐘": 6815,
      "鐙": 6816,
      "鐵": 6817,
      "鐸": 6818,
      "鐻": 6819,
      "鑄": 6820,
      "鑑": 6821,
      "鑒": 6822,
      "鑛": 6823,
      "鑞": 6824,
      "鑮": 6825,
      "鑰": 6826,
      "鑴": 6827,
      "鑼": 6828,
      "鑿": 6829,
      "针": 6830,
      "钓": 6831,
      "钟": 6832,
      "钢": 6833,
      "钱": 6834,
      "铁": 6835,
      "铃": 6836,
      "银": 6837,
      "铺": 6838,
      "链": 6839,
      "销": 6840,
      "锅": 6841,
      "锐": 6842,
      "错": 6843,
      "锡": 6844,
      "锣": 6845,
      "锥": 6846,
      "锦": 6847,
      "锭": 6848,
      "镇": 6849,
      "長": 6850,
      "长": 6851,
      "門": 6852,
      "閃": 6853,
      "閉": 6854,
      "開": 6855,
      "閏": 6856,
      "閑": 6857,
      "閒": 6858,
      "間": 6859,
      "閔": 6860,
      "関": 6861,
      "閣": 6862,
      "閤": 6863,
      "閥": 6864,
      "閨": 6865,
      "閩": 6866,
      "閭": 6867,
      "閱": 6868,
      "閻": 6869,
      "閼": 6870,
      "闇": 6871,
      "闊": 6872,
      "闐": 6873,
      "闔": 6874,
      "闕": 6875,
      "闘": 6876,
      "關": 6877,
      "闞": 6878,
      "闡": 6879,
      "闢": 6880,
      "门": 6881,
      "闪": 6882,
      "问": 6883,
      "闲": 6884,
      "间": 6885,
      "闸": 6886,
      "闻": 6887,
      "闽": 6888,
      "阁": 6889,
      "阅": 6890,
      "阔": 6891,
      "阙": 6892,
      "阜": 6893,
      "队": 6894,
      "阪": 6895,
      "阮": 6896,
      "阯": 6897,
      "防": 6898,
      "阳": 6899,
      "阶": 6900,
      "阻": 6901,
      "阼": 6902,
      "阿": 6903,
      "陀": 6904,
      "陂": 6905,
      "附": 6906,
      "际": 6907,
      "陆": 6908,
      "陈": 6909,
      "陋": 6910,
      "陌": 6911,
      "降": 6912,
      "限": 6913,
      "陛": 6914,
      "陜": 6915,
      "陝": 6916,
      "陞": 6917,
      "院": 6918,
      "陣": 6919,
      "除": 6920,
      "陥": 6921,
      "险": 6922,
      "陪": 6923,
      "陰": 6924,
      "陲": 6925,
      "陳": 6926,
      "陵": 6927,
      "陶": 6928,
      "陷": 6929,
      "陸": 6930,
      "険": 6931,
      "陽": 6932,
      "隅": 6933,
      "隆": 6934,
      "隈": 6935,
      "隊": 6936,
      "隋": 6937,
      "隍": 6938,
      "階": 6939,
      "随": 6940,
      "隐": 6941,
      "隔": 6942,
      "隘": 6943,
      "隙": 6944,
      "際": 6945,
      "障": 6946,
      "隠": 6947,
      "隣": 6948,
      "隧": 6949,
      "隨": 6950,
      "險": 6951,
      "隱": 6952,
      "隴": 6953,
      "隶": 6954,
      "隷": 6955,
      "隸": 6956,
      "隻": 6957,
      "难": 6958,
      "雀": 6959,
      "雁": 6960,
      "雄": 6961,
      "雅": 6962,
      "集": 6963,
      "雇": 6964,
      "雉": 6965,
      "雌": 6966,
      "雍": 6967,
      "雑": 6968,
      "雕": 6969,
      "雖": 6970,
      "雙": 6971,
      "雛": 6972,
      "雜": 6973,
      "雞": 6974,
      "離": 6975,
      "難": 6976,
      "雨": 6977,
      "雪": 6978,
      "雫": 6979,
      "雰": 6980,
      "雲": 6981,
      "零": 6982,
      "雷": 6983,
      "雹": 6984,
      "電": 6985,
      "雾": 6986,
      "需": 6987,
      "霆": 6988,
      "震": 6989,
      "霊": 6990,
      "霍": 6991,
      "霑": 6992,
      "霖": 6993,
      "霜": 6994,
      "霞": 6995,
      "霧": 6996,
      "露": 6997,
      "霸": 6998,
      "霽": 6999,
      "靄": 7000,
      "靈": 7001,
      "靑": 7002,
      "青": 7003,
      "靖": 7004,
      "静": 7005,
      "靚": 7006,
      "靜": 7007,
      "非": 7008,
      "靠": 7009,
      "靡": 7010,
      "面": 7011,
      "革": 7012,
      "靭": 7013,
      "靴": 7014,
      "靷": 7015,
      "鞋": 7016,
      "鞍": 7017,
      "鞘": 7018,
      "鞜": 7019,
      "鞠": 7020,
      "鞭": 7021,
      "韆": 7022,
      "韋": 7023,
      "韓": 7024,
      "韜": 7025,
      "韠": 7026,
      "韦": 7027,
      "韩": 7028,
      "音": 7029,
      "韶": 7030,
      "韻": 7031,
      "響": 7032,
      "頁": 7033,
      "頂": 7034,
      "頃": 7035,
      "項": 7036,
      "順": 7037,
      "須": 7038,
      "頌": 7039,
      "預": 7040,
      "頑": 7041,
      "頒": 7042,
      "頓": 7043,
      "頗": 7044,
      "領": 7045,
      "頤": 7046,
      "頬": 7047,
      "頭": 7048,
      "頸": 7049,
      "頻": 7050,
      "頼": 7051,
      "顀": 7052,
      "題": 7053,
      "額": 7054,
      "顒": 7055,
      "顔": 7056,
      "顕": 7057,
      "顗": 7058,
      "願": 7059,
      "顚": 7060,
      "類": 7061,
      "顥": 7062,
      "顧": 7063,
      "顯": 7064,
      "页": 7065,
      "项": 7066,
      "顺": 7067,
      "须": 7068,
      "顾": 7069,
      "顿": 7070,
      "颂": 7071,
      "预": 7072,
      "领": 7073,
      "频": 7074,
      "题": 7075,
      "颜": 7076,
      "额": 7077,
      "風": 7078,
      "颶": 7079,
      "飄": 7080,
      "风": 7081,
      "飛": 7082,
      "飜": 7083,
      "飞": 7084,
      "食": 7085,
      "飢": 7086,
      "飣": 7087,
      "飧": 7088,
      "飭": 7089,
      "飮": 7090,
      "飯": 7091,
      "飲": 7092,
      "飼": 7093,
      "飽": 7094,
      "飾": 7095,
      "餅": 7096,
      "養": 7097,
      "餌": 7098,
      "餐": 7099,
      "餓": 7100,
      "餘": 7101,
      "餝": 7102,
      "餞": 7103,
      "餠": 7104,
      "館": 7105,
      "饉": 7106,
      "饌": 7107,
      "饒": 7108,
      "饗": 7109,
      "饪": 7110,
      "饭": 7111,
      "饮": 7112,
      "饶": 7113,
      "饼": 7114,
      "馆": 7115,
      "馍": 7116,
      "馏": 7117,
      "首": 7118,
      "香": 7119,
      "馥": 7120,
      "馨": 7121,
      "馬": 7122,
      "馭": 7123,
      "馮": 7124,
      "馱": 7125,
      "馳": 7126,
      "馴": 7127,
      "駄": 7128,
      "駅": 7129,
      "駆": 7130,
      "駐": 7131,
      "駒": 7132,
      "駕": 7133,
      "駝": 7134,
      "駟": 7135,
      "駭": 7136,
      "駱": 7137,
      "駿": 7138,
      "騁": 7139,
      "騎": 7140,
      "騒": 7141,
      "験": 7142,
      "騨": 7143,
      "騭": 7144,
      "騰": 7145,
      "騷": 7146,
      "驅": 7147,
      "驍": 7148,
      "驕": 7149,
      "驗": 7150,
      "驚": 7151,
      "驛": 7152,
      "驢": 7153,
      "驤": 7154,
      "驥": 7155,
      "驪": 7156,
      "马": 7157,
      "驳": 7158,
      "驻": 7159,
      "验": 7160,
      "骏": 7161,
      "骑": 7162,
      "骨": 7163,
      "骸": 7164,
      "髓": 7165,
      "體": 7166,
      "高": 7167,
      "髙": 7168,
      "髥": 7169,
      "髪": 7170,
      "髮": 7171,
      "鬃": 7172,
      "鬚": 7173,
      "鬥": 7174,
      "鬪": 7175,
      "鬱": 7176,
      "鬼": 7177,
      "魁": 7178,
      "魂": 7179,
      "魃": 7180,
      "魄": 7181,
      "魅": 7182,
      "魋": 7183,
      "魏": 7184,
      "魔": 7185,
      "魚": 7186,
      "魯": 7187,
      "鮎": 7188,
      "鮑": 7189,
      "鮨": 7190,
      "鮮": 7191,
      "鯤": 7192,
      "鯨": 7193,
      "鰍": 7194,
      "鰐": 7195,
      "鰱": 7196,
      "鰲": 7197,
      "鱗": 7198,
      "鱧": 7199,
      "鱼": 7200,
      "鱿": 7201,
      "鲁": 7202,
      "鲔": 7203,
      "鲜": 7204,
      "鳥": 7205,
      "鳩": 7206,
      "鳳": 7207,
      "鳴": 7208,
      "鳶": 7209,
      "鴉": 7210,
      "鴒": 7211,
      "鴛": 7212,
      "鴦": 7213,
      "鴨": 7214,
      "鴻": 7215,
      "鵑": 7216,
      "鵜": 7217,
      "鵬": 7218,
      "鵰": 7219,
      "鵲": 7220,
      "鵷": 7221,
      "鶏": 7222,
      "鶚": 7223,
      "鶤": 7224,
      "鶯": 7225,
      "鶴": 7226,
      "鷄": 7227,
      "鷗": 7228,
      "鷲": 7229,
      "鷹": 7230,
      "鸚": 7231,
      "鸟": 7232,
      "鸡": 7233,
      "鸣": 7234,
      "鸭": 7235,
      "鸯": 7236,
      "鸳": 7237,
      "鹤": 7238,
      "鹰": 7239,
      "鹽": 7240,
      "鹿": 7241,
      "麁": 7242,
      "麋": 7243,
      "麒": 7244,
      "麓": 7245,
      "麗": 7246,
      "麝": 7247,
      "麟": 7248,
      "麥": 7249,
      "麦": 7250,
      "麵": 7251,
      "麺": 7252,
      "麻": 7253,
      "麼": 7254,
      "麿": 7255,
      "黃": 7256,
      "黄": 7257,
      "黎": 7258,
      "黑": 7259,
      "黒": 7260,
      "黔": 7261,
      "默": 7262,
      "黙": 7263,
      "黛": 7264,
      "點": 7265,
      "黟": 7266,
      "黨": 7267,
      "黯": 7268,
      "鼈": 7269,
      "鼎": 7270,
      "鼓": 7271,
      "鼠": 7272,
      "鼻": 7273,
      "鼾": 7274,
      "齊": 7275,
      "齋": 7276,
      "齎": 7277,
      "齐": 7278,
      "齒": 7279,
      "齡": 7280,
      "齢": 7281,
      "齣": 7282,
      "齧": 7283,
      "龄": 7284,
      "龍": 7285,
      "龐": 7286,
      "龔": 7287,
      "龕": 7288,
      "龙": 7289,
      "龜": 7290,
      "ꀰ": 7291,
      "ꂌ": 7292,
      "ꈍ": 7293,
      "ꊱ": 7294,
      "ꊲ": 7295,
      "ꊴ": 7296,
      "ꊷ": 7297,
      "ꋎ": 7298,
      "ꋏ": 7299,
      "ꋐ": 7300,
      "ꋑ": 7301,
      "ꋮ": 7302,
      "ꋯ": 7303,
      "ꋼ": 7304,
      "ꋽ": 7305,
      "꙼": 7306,
      "ꡐ": 7307,
      "ꡑ": 7308,
      "ꡒ": 7309,
      "ꡓ": 7310,
      "ꡔ": 7311,
      "ꡕ": 7312,
      "ꭉ": 7313,
      "가": 7314,
      "각": 7315,
      "갂": 7316,
      "간": 7317,
      "갇": 7318,
      "갈": 7319,
      "갉": 7320,
      "갊": 7321,
      "갏": 7322,
      "감": 7323,
      "갑": 7324,
      "값": 7325,
      "갓": 7326,
      "갔": 7327,
      "강": 7328,
      "갖": 7329,
      "갗": 7330,
      "갘": 7331,
      "같": 7332,
      "갚": 7333,
      "갛": 7334,
      "개": 7335,
      "객": 7336,
      "갠": 7337,
      "갤": 7338,
      "갬": 7339,
      "갭": 7340,
      "갯": 7341,
      "갰": 7342,
      "갱": 7343,
      "갲": 7344,
      "갸": 7345,
      "갹": 7346,
      "갼": 7347,
      "걀": 7348,
      "걋": 7349,
      "걍": 7350,
      "걔": 7351,
      "걕": 7352,
      "걘": 7353,
      "걜": 7354,
      "걟": 7355,
      "걩": 7356,
      "거": 7357,
      "걱": 7358,
      "건": 7359,
      "걷": 7360,
      "걸": 7361,
      "검": 7362,
      "겁": 7363,
      "겂": 7364,
      "것": 7365,
      "겄": 7366,
      "겅": 7367,
      "겆": 7368,
      "겉": 7369,
      "겊": 7370,
      "겋": 7371,
      "게": 7372,
      "겍": 7373,
      "겐": 7374,
      "겓": 7375,
      "겔": 7376,
      "겙": 7377,
      "겜": 7378,
      "겝": 7379,
      "겟": 7380,
      "겠": 7381,
      "겡": 7382,
      "겧": 7383,
      "겨": 7384,
      "격": 7385,
      "겪": 7386,
      "견": 7387,
      "겯": 7388,
      "결": 7389,
      "겱": 7390,
      "겷": 7391,
      "겸": 7392,
      "겹": 7393,
      "겻": 7394,
      "겼": 7395,
      "경": 7396,
      "겿": 7397,
      "곁": 7398,
      "곂": 7399,
      "계": 7400,
      "곈": 7401,
      "곌": 7402,
      "곔": 7403,
      "곗": 7404,
      "곘": 7405,
      "고": 7406,
      "곡": 7407,
      "곤": 7408,
      "곧": 7409,
      "골": 7410,
      "곪": 7411,
      "곬": 7412,
      "곯": 7413,
      "곰": 7414,
      "곱": 7415,
      "곳": 7416,
      "공": 7417,
      "곶": 7418,
      "곷": 7419,
      "곸": 7420,
      "곺": 7421,
      "곻": 7422,
      "과": 7423,
      "곽": 7424,
      "관": 7425,
      "괄": 7426,
      "괌": 7427,
      "괍": 7428,
      "광": 7429,
      "괕": 7430,
      "괖": 7431,
      "괘": 7432,
      "괜": 7433,
      "괞": 7434,
      "괭": 7435,
      "괴": 7436,
      "괵": 7437,
      "괸": 7438,
      "괺": 7439,
      "괼": 7440,
      "굄": 7441,
      "굅": 7442,
      "굇": 7443,
      "굉": 7444,
      "굋": 7445,
      "교": 7446,
      "굑": 7447,
      "굔": 7448,
      "굘": 7449,
      "굚": 7450,
      "굣": 7451,
      "구": 7452,
      "국": 7453,
      "군": 7454,
      "굳": 7455,
      "굴": 7456,
      "굵": 7457,
      "굶": 7458,
      "굷": 7459,
      "굻": 7460,
      "굼": 7461,
      "굽": 7462,
      "굿": 7463,
      "궁": 7464,
      "궂": 7465,
      "궃": 7466,
      "궄": 7467,
      "궇": 7468,
      "궈": 7469,
      "궉": 7470,
      "권": 7471,
      "궐": 7472,
      "궛": 7473,
      "궜": 7474,
      "궢": 7475,
      "궤": 7476,
      "궨": 7477,
      "궪": 7478,
      "궲": 7479,
      "궸": 7480,
      "궹": 7481,
      "궻": 7482,
      "궼": 7483,
      "귀": 7484,
      "귁": 7485,
      "귄": 7486,
      "귈": 7487,
      "귐": 7488,
      "귑": 7489,
      "귓": 7490,
      "규": 7491,
      "귝": 7492,
      "균": 7493,
      "귤": 7494,
      "귬": 7495,
      "귯": 7496,
      "귱": 7497,
      "그": 7498,
      "극": 7499,
      "근": 7500,
      "귿": 7501,
      "글": 7502,
      "긁": 7503,
      "긇": 7504,
      "금": 7505,
      "급": 7506,
      "긋": 7507,
      "긍": 7508,
      "긎": 7509,
      "긑": 7510,
      "긓": 7511,
      "긔": 7512,
      "긬": 7513,
      "기": 7514,
      "긱": 7515,
      "긴": 7516,
      "긷": 7517,
      "길": 7518,
      "긺": 7519,
      "김": 7520,
      "깁": 7521,
      "깂": 7522,
      "깃": 7523,
      "깄": 7524,
      "깅": 7525,
      "깆": 7526,
      "깇": 7527,
      "깈": 7528,
      "깉": 7529,
      "깊": 7530,
      "깋": 7531,
      "까": 7532,
      "깍": 7533,
      "깎": 7534,
      "깐": 7535,
      "깓": 7536,
      "깔": 7537,
      "깕": 7538,
      "깗": 7539,
      "깜": 7540,
      "깝": 7541,
      "깟": 7542,
      "깠": 7543,
      "깡": 7544,
      "깣": 7545,
      "깤": 7546,
      "깥": 7547,
      "깨": 7548,
      "깩": 7549,
      "깬": 7550,
      "깰": 7551,
      "깸": 7552,
      "깹": 7553,
      "깻": 7554,
      "깼": 7555,
      "깽": 7556,
      "꺄": 7557,
      "꺅": 7558,
      "꺆": 7559,
      "꺌": 7560,
      "꺙": 7561,
      "꺠": 7562,
      "꺼": 7563,
      "꺽": 7564,
      "꺾": 7565,
      "껀": 7566,
      "껄": 7567,
      "껌": 7568,
      "껍": 7569,
      "껏": 7570,
      "껐": 7571,
      "껑": 7572,
      "껒": 7573,
      "께": 7574,
      "껙": 7575,
      "껜": 7576,
      "껠": 7577,
      "껨": 7578,
      "껫": 7579,
      "껬": 7580,
      "껭": 7581,
      "껴": 7582,
      "껵": 7583,
      "껸": 7584,
      "꼄": 7585,
      "꼇": 7586,
      "꼈": 7587,
      "꼉": 7588,
      "꼍": 7589,
      "꼐": 7590,
      "꼬": 7591,
      "꼭": 7592,
      "꼮": 7593,
      "꼰": 7594,
      "꼳": 7595,
      "꼴": 7596,
      "꼼": 7597,
      "꼽": 7598,
      "꼿": 7599,
      "꽁": 7600,
      "꽂": 7601,
      "꽃": 7602,
      "꽆": 7603,
      "꽈": 7604,
      "꽉": 7605,
      "꽌": 7606,
      "꽐": 7607,
      "꽝": 7608,
      "꽤": 7609,
      "꽥": 7610,
      "꽭": 7611,
      "꽹": 7612,
      "꾀": 7613,
      "꾄": 7614,
      "꾈": 7615,
      "꾐": 7616,
      "꾑": 7617,
      "꾜": 7618,
      "꾨": 7619,
      "꾳": 7620,
      "꾸": 7621,
      "꾹": 7622,
      "꾼": 7623,
      "꾾": 7624,
      "꾿": 7625,
      "꿀": 7626,
      "꿇": 7627,
      "꿈": 7628,
      "꿉": 7629,
      "꿋": 7630,
      "꿍": 7631,
      "꿎": 7632,
      "꿏": 7633,
      "꿔": 7634,
      "꿘": 7635,
      "꿧": 7636,
      "꿨": 7637,
      "꿩": 7638,
      "꿰": 7639,
      "꿱": 7640,
      "꿴": 7641,
      "꿸": 7642,
      "뀁": 7643,
      "뀌": 7644,
      "뀐": 7645,
      "뀔": 7646,
      "뀜": 7647,
      "뀝": 7648,
      "뀨": 7649,
      "뀰": 7650,
      "끄": 7651,
      "끈": 7652,
      "끊": 7653,
      "끌": 7654,
      "끍": 7655,
      "끎": 7656,
      "끓": 7657,
      "끔": 7658,
      "끕": 7659,
      "끗": 7660,
      "끙": 7661,
      "끚": 7662,
      "끝": 7663,
      "끠": 7664,
      "끵": 7665,
      "끼": 7666,
      "끽": 7667,
      "낀": 7668,
      "낃": 7669,
      "낄": 7670,
      "낆": 7671,
      "낌": 7672,
      "낍": 7673,
      "낏": 7674,
      "낑": 7675,
      "낔": 7676,
      "나": 7677,
      "낙": 7678,
      "낚": 7679,
      "낛": 7680,
      "난": 7681,
      "낞": 7682,
      "낟": 7683,
      "날": 7684,
      "낡": 7685,
      "낢": 7686,
      "남": 7687,
      "납": 7688,
      "낫": 7689,
      "났": 7690,
      "낭": 7691,
      "낮": 7692,
      "낯": 7693,
      "낰": 7694,
      "낱": 7695,
      "낳": 7696,
      "내": 7697,
      "낵": 7698,
      "낸": 7699,
      "낼": 7700,
      "냄": 7701,
      "냅": 7702,
      "냇": 7703,
      "냈": 7704,
      "냉": 7705,
      "냏": 7706,
      "냐": 7707,
      "냑": 7708,
      "냔": 7709,
      "냘": 7710,
      "냠": 7711,
      "냣": 7712,
      "냤": 7713,
      "냥": 7714,
      "냨": 7715,
      "냬": 7716,
      "너": 7717,
      "넉": 7718,
      "넋": 7719,
      "넌": 7720,
      "넎": 7721,
      "널": 7722,
      "넑": 7723,
      "넒": 7724,
      "넓": 7725,
      "넖": 7726,
      "넗": 7727,
      "넘": 7728,
      "넙": 7729,
      "넚": 7730,
      "넛": 7731,
      "넜": 7732,
      "넝": 7733,
      "넣": 7734,
      "네": 7735,
      "넥": 7736,
      "넨": 7737,
      "넫": 7738,
      "넬": 7739,
      "넴": 7740,
      "넵": 7741,
      "넷": 7742,
      "넸": 7743,
      "넹": 7744,
      "넺": 7745,
      "넼": 7746,
      "넽": 7747,
      "녀": 7748,
      "녁": 7749,
      "년": 7750,
      "녈": 7751,
      "념": 7752,
      "녑": 7753,
      "녓": 7754,
      "녔": 7755,
      "녕": 7756,
      "녘": 7757,
      "녜": 7758,
      "녝": 7759,
      "녠": 7760,
      "녤": 7761,
      "녱": 7762,
      "노": 7763,
      "녹": 7764,
      "논": 7765,
      "놀": 7766,
      "놄": 7767,
      "놈": 7768,
      "놉": 7769,
      "놋": 7770,
      "농": 7771,
      "놏": 7772,
      "놑": 7773,
      "높": 7774,
      "놓": 7775,
      "놔": 7776,
      "놘": 7777,
      "놧": 7778,
      "놨": 7779,
      "뇌": 7780,
      "뇐": 7781,
      "뇔": 7782,
      "뇨": 7783,
      "뇩": 7784,
      "뇬": 7785,
      "뇰": 7786,
      "뇸": 7787,
      "뇽": 7788,
      "누": 7789,
      "눅": 7790,
      "눈": 7791,
      "눌": 7792,
      "눔": 7793,
      "눕": 7794,
      "눗": 7795,
      "눙": 7796,
      "눚": 7797,
      "눝": 7798,
      "눞": 7799,
      "눠": 7800,
      "눨": 7801,
      "눴": 7802,
      "눼": 7803,
      "뉗": 7804,
      "뉘": 7805,
      "뉜": 7806,
      "뉠": 7807,
      "뉨": 7808,
      "뉩": 7809,
      "뉴": 7810,
      "뉵": 7811,
      "뉼": 7812,
      "늄": 7813,
      "늅": 7814,
      "늇": 7815,
      "늉": 7816,
      "느": 7817,
      "늑": 7818,
      "늒": 7819,
      "는": 7820,
      "늗": 7821,
      "늘": 7822,
      "늙": 7823,
      "늜": 7824,
      "늠": 7825,
      "늡": 7826,
      "늣": 7827,
      "능": 7828,
      "늦": 7829,
      "늧": 7830,
      "늩": 7831,
      "늪": 7832,
      "늬": 7833,
      "늴": 7834,
      "니": 7835,
      "닉": 7836,
      "닌": 7837,
      "닏": 7838,
      "닐": 7839,
      "님": 7840,
      "닙": 7841,
      "닛": 7842,
      "닝": 7843,
      "닞": 7844,
      "닠": 7845,
      "닢": 7846,
      "다": 7847,
      "닥": 7848,
      "닦": 7849,
      "단": 7850,
      "닫": 7851,
      "달": 7852,
      "닭": 7853,
      "닮": 7854,
      "닯": 7855,
      "닲": 7856,
      "닳": 7857,
      "담": 7858,
      "답": 7859,
      "닶": 7860,
      "닷": 7861,
      "당": 7862,
      "닺": 7863,
      "닻": 7864,
      "닼": 7865,
      "닽": 7866,
      "닿": 7867,
      "대": 7868,
      "댁": 7869,
      "댄": 7870,
      "댈": 7871,
      "댐": 7872,
      "댑": 7873,
      "댓": 7874,
      "댔": 7875,
      "댕": 7876,
      "댙": 7877,
      "댛": 7878,
      "댜": 7879,
      "댠": 7880,
      "댱": 7881,
      "덇": 7882,
      "더": 7883,
      "덕": 7884,
      "덖": 7885,
      "던": 7886,
      "덛": 7887,
      "덜": 7888,
      "덞": 7889,
      "덟": 7890,
      "덤": 7891,
      "덥": 7892,
      "덧": 7893,
      "덨": 7894,
      "덩": 7895,
      "덪": 7896,
      "덫": 7897,
      "덬": 7898,
      "덮": 7899,
      "덯": 7900,
      "데": 7901,
      "덱": 7902,
      "덲": 7903,
      "덴": 7904,
      "덷": 7905,
      "델": 7906,
      "뎀": 7907,
      "뎁": 7908,
      "뎃": 7909,
      "뎄": 7910,
      "뎅": 7911,
      "뎈": 7912,
      "뎌": 7913,
      "뎐": 7914,
      "뎔": 7915,
      "뎜": 7916,
      "뎠": 7917,
      "뎡": 7918,
      "뎨": 7919,
      "뎬": 7920,
      "도": 7921,
      "독": 7922,
      "돈": 7923,
      "돋": 7924,
      "돌": 7925,
      "돐": 7926,
      "돔": 7927,
      "돕": 7928,
      "돗": 7929,
      "동": 7930,
      "돛": 7931,
      "돜": 7932,
      "돠": 7933,
      "돡": 7934,
      "돤": 7935,
      "돨": 7936,
      "돱": 7937,
      "돼": 7938,
      "됀": 7939,
      "됄": 7940,
      "됌": 7941,
      "됍": 7942,
      "됏": 7943,
      "됐": 7944,
      "되": 7945,
      "됙": 7946,
      "된": 7947,
      "될": 7948,
      "됨": 7949,
      "됩": 7950,
      "됫": 7951,
      "됬": 7952,
      "됭": 7953,
      "됮": 7954,
      "됴": 7955,
      "됵": 7956,
      "됸": 7957,
      "둉": 7958,
      "두": 7959,
      "둑": 7960,
      "둔": 7961,
      "둘": 7962,
      "둟": 7963,
      "둠": 7964,
      "둡": 7965,
      "둣": 7966,
      "둥": 7967,
      "둬": 7968,
      "둰": 7969,
      "둿": 7970,
      "뒀": 7971,
      "뒁": 7972,
      "뒈": 7973,
      "뒌": 7974,
      "뒐": 7975,
      "뒜": 7976,
      "뒤": 7977,
      "뒥": 7978,
      "뒨": 7979,
      "뒬": 7980,
      "뒷": 7981,
      "뒹": 7982,
      "뒺": 7983,
      "듀": 7984,
      "듁": 7985,
      "듄": 7986,
      "듈": 7987,
      "듐": 7988,
      "듕": 7989,
      "드": 7990,
      "득": 7991,
      "든": 7992,
      "듣": 7993,
      "들": 7994,
      "듥": 7995,
      "듦": 7996,
      "듧": 7997,
      "듫": 7998,
      "듬": 7999,
      "듭": 8000,
      "듯": 8001,
      "등": 8002,
      "듴": 8003,
      "듸": 8004,
      "디": 8005,
      "딕": 8006,
      "딘": 8007,
      "딛": 8008,
      "딜": 8009,
      "딝": 8010,
      "딤": 8011,
      "딥": 8012,
      "딧": 8013,
      "딨": 8014,
      "딩": 8015,
      "딪": 8016,
      "딫": 8017,
      "딮": 8018,
      "따": 8019,
      "딱": 8020,
      "딲": 8021,
      "딴": 8022,
      "딸": 8023,
      "땀": 8024,
      "땁": 8025,
      "땃": 8026,
      "땄": 8027,
      "땅": 8028,
      "땈": 8029,
      "땋": 8030,
      "때": 8031,
      "땐": 8032,
      "땓": 8033,
      "땔": 8034,
      "땜": 8035,
      "땝": 8036,
      "땟": 8037,
      "땠": 8038,
      "땡": 8039,
      "땨": 8040,
      "땲": 8041,
      "땳": 8042,
      "땽": 8043,
      "떄": 8044,
      "떈": 8045,
      "떔": 8046,
      "떘": 8047,
      "떙": 8048,
      "떠": 8049,
      "떡": 8050,
      "떢": 8051,
      "떤": 8052,
      "떨": 8053,
      "떪": 8054,
      "떫": 8055,
      "떬": 8056,
      "떰": 8057,
      "떱": 8058,
      "떳": 8059,
      "떴": 8060,
      "떵": 8061,
      "떻": 8062,
      "떼": 8063,
      "떽": 8064,
      "뗀": 8065,
      "뗄": 8066,
      "뗌": 8067,
      "뗍": 8068,
      "뗏": 8069,
      "뗐": 8070,
      "뗑": 8071,
      "뗜": 8072,
      "뗬": 8073,
      "뗳": 8074,
      "뗴": 8075,
      "뗼": 8076,
      "또": 8077,
      "똑": 8078,
      "똔": 8079,
      "똘": 8080,
      "똠": 8081,
      "똣": 8082,
      "똥": 8083,
      "똫": 8084,
      "똬": 8085,
      "똭": 8086,
      "똻": 8087,
      "똿": 8088,
      "뙁": 8089,
      "뙇": 8090,
      "뙈": 8091,
      "뙤": 8092,
      "뚀": 8093,
      "뚜": 8094,
      "뚝": 8095,
      "뚠": 8096,
      "뚤": 8097,
      "뚫": 8098,
      "뚬": 8099,
      "뚯": 8100,
      "뚰": 8101,
      "뚱": 8102,
      "뚸": 8103,
      "뛔": 8104,
      "뛰": 8105,
      "뛴": 8106,
      "뛸": 8107,
      "뜀": 8108,
      "뜁": 8109,
      "뜅": 8110,
      "뜌": 8111,
      "뜔": 8112,
      "뜨": 8113,
      "뜩": 8114,
      "뜬": 8115,
      "뜯": 8116,
      "뜰": 8117,
      "뜷": 8118,
      "뜸": 8119,
      "뜹": 8120,
      "뜻": 8121,
      "뜽": 8122,
      "띁": 8123,
      "띄": 8124,
      "띈": 8125,
      "띌": 8126,
      "띔": 8127,
      "띕": 8128,
      "띠": 8129,
      "띡": 8130,
      "띤": 8131,
      "띨": 8132,
      "띰": 8133,
      "띱": 8134,
      "띳": 8135,
      "띵": 8136,
      "라": 8137,
      "락": 8138,
      "띾": 8139,
      "란": 8140,
      "랄": 8141,
      "랆": 8142,
      "람": 8143,
      "랍": 8144,
      "랏": 8145,
      "랐": 8146,
      "랑": 8147,
      "랒": 8148,
      "랓": 8149,
      "랔": 8150,
      "랖": 8151,
      "랗": 8152,
      "래": 8153,
      "랙": 8154,
      "랜": 8155,
      "랟": 8156,
      "랠": 8157,
      "램": 8158,
      "랩": 8159,
      "랫": 8160,
      "랬": 8161,
      "랭": 8162,
      "랲": 8163,
      "랴": 8164,
      "략": 8165,
      "랸": 8166,
      "랼": 8167,
      "럇": 8168,
      "량": 8169,
      "럤": 8170,
      "러": 8171,
      "럭": 8172,
      "런": 8173,
      "럴": 8174,
      "럼": 8175,
      "럽": 8176,
      "럿": 8177,
      "렀": 8178,
      "렁": 8179,
      "렂": 8180,
      "렆": 8181,
      "렇": 8182,
      "레": 8183,
      "렉": 8184,
      "렋": 8185,
      "렌": 8186,
      "렐": 8187,
      "렘": 8188,
      "렙": 8189,
      "렛": 8190,
      "렜": 8191,
      "렝": 8192,
      "려": 8193,
      "력": 8194,
      "련": 8195,
      "렬": 8196,
      "렴": 8197,
      "렵": 8198,
      "렷": 8199,
      "렸": 8200,
      "령": 8201,
      "렼": 8202,
      "렿": 8203,
      "례": 8204,
      "롄": 8205,
      "롑": 8206,
      "로": 8207,
      "록": 8208,
      "론": 8209,
      "롣": 8210,
      "롤": 8211,
      "롬": 8212,
      "롭": 8213,
      "롯": 8214,
      "롱": 8215,
      "롴": 8216,
      "롷": 8217,
      "롸": 8218,
      "롹": 8219,
      "롼": 8220,
      "뢀": 8221,
      "뢌": 8222,
      "뢐": 8223,
      "뢨": 8224,
      "뢰": 8225,
      "뢱": 8226,
      "뢴": 8227,
      "뢸": 8228,
      "뢾": 8229,
      "뢿": 8230,
      "룀": 8231,
      "룁": 8232,
      "룅": 8233,
      "료": 8234,
      "룏": 8235,
      "룐": 8236,
      "룑": 8237,
      "룔": 8238,
      "룕": 8239,
      "룖": 8240,
      "룞": 8241,
      "룟": 8242,
      "룡": 8243,
      "루": 8244,
      "룩": 8245,
      "룬": 8246,
      "룰": 8247,
      "룸": 8248,
      "룹": 8249,
      "룻": 8250,
      "룽": 8251,
      "룿": 8252,
      "뤀": 8253,
      "뤄": 8254,
      "뤘": 8255,
      "뤠": 8256,
      "뤤": 8257,
      "뤵": 8258,
      "뤼": 8259,
      "뤽": 8260,
      "륀": 8261,
      "륄": 8262,
      "륌": 8263,
      "륍": 8264,
      "륏": 8265,
      "륑": 8266,
      "류": 8267,
      "륙": 8268,
      "륚": 8269,
      "륜": 8270,
      "률": 8271,
      "륨": 8272,
      "륩": 8273,
      "륫": 8274,
      "륭": 8275,
      "르": 8276,
      "륵": 8277,
      "륷": 8278,
      "른": 8279,
      "를": 8280,
      "릁": 8281,
      "름": 8282,
      "릅": 8283,
      "릇": 8284,
      "릉": 8285,
      "릌": 8286,
      "릎": 8287,
      "릏": 8288,
      "릐": 8289,
      "리": 8290,
      "릭": 8291,
      "린": 8292,
      "릳": 8293,
      "릴": 8294,
      "림": 8295,
      "립": 8296,
      "릿": 8297,
      "링": 8298,
      "맄": 8299,
      "맅": 8300,
      "맆": 8301,
      "마": 8302,
      "막": 8303,
      "맋": 8304,
      "만": 8305,
      "맍": 8306,
      "많": 8307,
      "맏": 8308,
      "말": 8309,
      "맑": 8310,
      "맘": 8311,
      "맙": 8312,
      "맛": 8313,
      "맜": 8314,
      "망": 8315,
      "맞": 8316,
      "맟": 8317,
      "맠": 8318,
      "맡": 8319,
      "맣": 8320,
      "매": 8321,
      "맥": 8322,
      "맨": 8323,
      "맬": 8324,
      "맴": 8325,
      "맵": 8326,
      "맷": 8327,
      "맸": 8328,
      "맹": 8329,
      "맺": 8330,
      "맻": 8331,
      "먀": 8332,
      "먁": 8333,
      "먄": 8334,
      "먆": 8335,
      "먈": 8336,
      "먐": 8337,
      "먕": 8338,
      "먯": 8339,
      "머": 8340,
      "먹": 8341,
      "먺": 8342,
      "먼": 8343,
      "멀": 8344,
      "멃": 8345,
      "멈": 8346,
      "멉": 8347,
      "멋": 8348,
      "멍": 8349,
      "멎": 8350,
      "멏": 8351,
      "멓": 8352,
      "메": 8353,
      "멕": 8354,
      "멘": 8355,
      "멜": 8356,
      "멤": 8357,
      "멥": 8358,
      "멧": 8359,
      "멨": 8360,
      "멩": 8361,
      "멬": 8362,
      "며": 8363,
      "멱": 8364,
      "면": 8365,
      "멸": 8366,
      "몀": 8367,
      "몃": 8368,
      "몄": 8369,
      "명": 8370,
      "몆": 8371,
      "몇": 8372,
      "몉": 8373,
      "몊": 8374,
      "몋": 8375,
      "몐": 8376,
      "모": 8377,
      "목": 8378,
      "몪": 8379,
      "몫": 8380,
      "몬": 8381,
      "몰": 8382,
      "몸": 8383,
      "몹": 8384,
      "못": 8385,
      "몽": 8386,
      "뫃": 8387,
      "뫄": 8388,
      "뫼": 8389,
      "묀": 8390,
      "묄": 8391,
      "묏": 8392,
      "묘": 8393,
      "묜": 8394,
      "묪": 8395,
      "묫": 8396,
      "묭": 8397,
      "무": 8398,
      "묵": 8399,
      "묶": 8400,
      "문": 8401,
      "묻": 8402,
      "물": 8403,
      "묽": 8404,
      "묾": 8405,
      "뭄": 8406,
      "뭅": 8407,
      "뭇": 8408,
      "뭉": 8409,
      "뭋": 8410,
      "뭌": 8411,
      "뭍": 8412,
      "뭎": 8413,
      "뭏": 8414,
      "뭐": 8415,
      "뭔": 8416,
      "뭘": 8417,
      "뭡": 8418,
      "뭣": 8419,
      "뭥": 8420,
      "뭬": 8421,
      "뮈": 8422,
      "뮌": 8423,
      "뮐": 8424,
      "뮘": 8425,
      "뮛": 8426,
      "뮤": 8427,
      "뮥": 8428,
      "뮨": 8429,
      "뮬": 8430,
      "뮴": 8431,
      "뮷": 8432,
      "므": 8433,
      "믁": 8434,
      "믄": 8435,
      "믈": 8436,
      "믐": 8437,
      "믓": 8438,
      "믔": 8439,
      "믕": 8440,
      "믜": 8441,
      "미": 8442,
      "믹": 8443,
      "민": 8444,
      "믿": 8445,
      "밀": 8446,
      "밄": 8447,
      "밈": 8448,
      "밉": 8449,
      "밋": 8450,
      "밌": 8451,
      "밍": 8452,
      "밎": 8453,
      "및": 8454,
      "밑": 8455,
      "밒": 8456,
      "밓": 8457,
      "바": 8458,
      "박": 8459,
      "밖": 8460,
      "반": 8461,
      "밚": 8462,
      "받": 8463,
      "발": 8464,
      "밝": 8465,
      "밞": 8466,
      "밟": 8467,
      "밣": 8468,
      "밤": 8469,
      "밥": 8470,
      "밦": 8471,
      "밧": 8472,
      "밨": 8473,
      "방": 8474,
      "밫": 8475,
      "밬": 8476,
      "밭": 8477,
      "배": 8478,
      "백": 8479,
      "밴": 8480,
      "밷": 8481,
      "밸": 8482,
      "뱀": 8483,
      "뱁": 8484,
      "뱃": 8485,
      "뱄": 8486,
      "뱅": 8487,
      "뱉": 8488,
      "뱌": 8489,
      "뱍": 8490,
      "뱐": 8491,
      "뱔": 8492,
      "뱜": 8493,
      "뱡": 8494,
      "버": 8495,
      "벅": 8496,
      "번": 8497,
      "벋": 8498,
      "벌": 8499,
      "벎": 8500,
      "범": 8501,
      "법": 8502,
      "벗": 8503,
      "벙": 8504,
      "벚": 8505,
      "벛": 8506,
      "벝": 8507,
      "베": 8508,
      "벡": 8509,
      "벤": 8510,
      "벧": 8511,
      "벨": 8512,
      "벰": 8513,
      "벱": 8514,
      "벳": 8515,
      "벴": 8516,
      "벵": 8517,
      "벹": 8518,
      "벼": 8519,
      "벽": 8520,
      "변": 8521,
      "별": 8522,
      "볋": 8523,
      "볌": 8524,
      "볍": 8525,
      "볏": 8526,
      "볐": 8527,
      "병": 8528,
      "볓": 8529,
      "볔": 8530,
      "볕": 8531,
      "볘": 8532,
      "볜": 8533,
      "보": 8534,
      "복": 8535,
      "볶": 8536,
      "볷": 8537,
      "본": 8538,
      "볻": 8539,
      "볼": 8540,
      "봄": 8541,
      "봅": 8542,
      "봇": 8543,
      "봉": 8544,
      "봊": 8545,
      "봏": 8546,
      "봐": 8547,
      "봑": 8548,
      "봣": 8549,
      "봤": 8550,
      "봥": 8551,
      "봬": 8552,
      "봰": 8553,
      "봽": 8554,
      "뵀": 8555,
      "뵈": 8556,
      "뵌": 8557,
      "뵐": 8558,
      "뵘": 8559,
      "뵙": 8560,
      "뵛": 8561,
      "뵜": 8562,
      "뵤": 8563,
      "뵨": 8564,
      "뵫": 8565,
      "부": 8566,
      "북": 8567,
      "붂": 8568,
      "분": 8569,
      "붇": 8570,
      "불": 8571,
      "붉": 8572,
      "붊": 8573,
      "붎": 8574,
      "붐": 8575,
      "붑": 8576,
      "붒": 8577,
      "붓": 8578,
      "붕": 8579,
      "붖": 8580,
      "붗": 8581,
      "붘": 8582,
      "붙": 8583,
      "붜": 8584,
      "붤": 8585,
      "붱": 8586,
      "붴": 8587,
      "붸": 8588,
      "붹": 8589,
      "붼": 8590,
      "뷁": 8591,
      "뷔": 8592,
      "뷘": 8593,
      "뷜": 8594,
      "뷰": 8595,
      "뷴": 8596,
      "뷸": 8597,
      "뷹": 8598,
      "븀": 8599,
      "븅": 8600,
      "브": 8601,
      "븍": 8602,
      "븐": 8603,
      "블": 8604,
      "븘": 8605,
      "븜": 8606,
      "븟": 8607,
      "븡": 8608,
      "븨": 8609,
      "븯": 8610,
      "븵": 8611,
      "비": 8612,
      "빅": 8613,
      "빈": 8614,
      "빋": 8615,
      "빌": 8616,
      "빔": 8617,
      "빕": 8618,
      "빗": 8619,
      "빙": 8620,
      "빚": 8621,
      "빛": 8622,
      "빝": 8623,
      "빠": 8624,
      "빡": 8625,
      "빢": 8626,
      "빤": 8627,
      "빨": 8628,
      "빰": 8629,
      "빱": 8630,
      "빳": 8631,
      "빴": 8632,
      "빵": 8633,
      "빻": 8634,
      "빼": 8635,
      "빽": 8636,
      "뺀": 8637,
      "뺄": 8638,
      "뺌": 8639,
      "뺍": 8640,
      "뺏": 8641,
      "뺐": 8642,
      "뺑": 8643,
      "뺒": 8644,
      "뺕": 8645,
      "뺘": 8646,
      "뺨": 8647,
      "뺳": 8648,
      "뺴": 8649,
      "뺵": 8650,
      "뺸": 8651,
      "뻄": 8652,
      "뻇": 8653,
      "뻐": 8654,
      "뻑": 8655,
      "뻔": 8656,
      "뻗": 8657,
      "뻘": 8658,
      "뻣": 8659,
      "뻤": 8660,
      "뻥": 8661,
      "뻩": 8662,
      "뻬": 8663,
      "뻰": 8664,
      "뻴": 8665,
      "뻿": 8666,
      "뼁": 8667,
      "뼈": 8668,
      "뼉": 8669,
      "뼘": 8670,
      "뼛": 8671,
      "뼜": 8672,
      "뼝": 8673,
      "뽀": 8674,
      "뽁": 8675,
      "뽄": 8676,
      "뽇": 8677,
      "뽈": 8678,
      "뽐": 8679,
      "뽑": 8680,
      "뽓": 8681,
      "뽕": 8682,
      "뽜": 8683,
      "뽝": 8684,
      "뽞": 8685,
      "뽠": 8686,
      "뽤": 8687,
      "뽱": 8688,
      "뾁": 8689,
      "뾰": 8690,
      "뾱": 8691,
      "뿅": 8692,
      "뿌": 8693,
      "뿍": 8694,
      "뿐": 8695,
      "뿔": 8696,
      "뿜": 8697,
      "뿟": 8698,
      "뿡": 8699,
      "뿨": 8700,
      "뿩": 8701,
      "쀼": 8702,
      "쁄": 8703,
      "쁘": 8704,
      "쁙": 8705,
      "쁜": 8706,
      "쁠": 8707,
      "쁨": 8708,
      "쁩": 8709,
      "쁴": 8710,
      "삐": 8711,
      "삑": 8712,
      "삔": 8713,
      "삘": 8714,
      "삠": 8715,
      "삡": 8716,
      "삣": 8717,
      "삥": 8718,
      "삧": 8719,
      "사": 8720,
      "삭": 8721,
      "삮": 8722,
      "삯": 8723,
      "산": 8724,
      "살": 8725,
      "삵": 8726,
      "삶": 8727,
      "삷": 8728,
      "삻": 8729,
      "삼": 8730,
      "삽": 8731,
      "삿": 8732,
      "샀": 8733,
      "상": 8734,
      "샄": 8735,
      "샅": 8736,
      "샆": 8737,
      "샇": 8738,
      "새": 8739,
      "색": 8740,
      "샊": 8741,
      "샌": 8742,
      "샐": 8743,
      "샔": 8744,
      "샘": 8745,
      "샙": 8746,
      "샛": 8747,
      "샜": 8748,
      "생": 8749,
      "샠": 8750,
      "샤": 8751,
      "샥": 8752,
      "샨": 8753,
      "샬": 8754,
      "샴": 8755,
      "샵": 8756,
      "샷": 8757,
      "샸": 8758,
      "샹": 8759,
      "샾": 8760,
      "섀": 8761,
      "섁": 8762,
      "섄": 8763,
      "섈": 8764,
      "섍": 8765,
      "섏": 8766,
      "섐": 8767,
      "섕": 8768,
      "서": 8769,
      "석": 8770,
      "섞": 8771,
      "섟": 8772,
      "선": 8773,
      "섣": 8774,
      "설": 8775,
      "섥": 8776,
      "섦": 8777,
      "섧": 8778,
      "섬": 8779,
      "섭": 8780,
      "섯": 8781,
      "섰": 8782,
      "성": 8783,
      "섴": 8784,
      "섵": 8785,
      "섶": 8786,
      "세": 8787,
      "섹": 8788,
      "센": 8789,
      "셀": 8790,
      "셈": 8791,
      "셉": 8792,
      "셋": 8793,
      "셌": 8794,
      "셍": 8795,
      "셑": 8796,
      "셔": 8797,
      "셕": 8798,
      "션": 8799,
      "셜": 8800,
      "셤": 8801,
      "셥": 8802,
      "셧": 8803,
      "셨": 8804,
      "셩": 8805,
      "셰": 8806,
      "셱": 8807,
      "셲": 8808,
      "셴": 8809,
      "셸": 8810,
      "솀": 8811,
      "솁": 8812,
      "솃": 8813,
      "솅": 8814,
      "소": 8815,
      "속": 8816,
      "솎": 8817,
      "손": 8818,
      "솓": 8819,
      "솔": 8820,
      "솜": 8821,
      "솝": 8822,
      "솟": 8823,
      "송": 8824,
      "솥": 8825,
      "솦": 8826,
      "솨": 8827,
      "솩": 8828,
      "솬": 8829,
      "솰": 8830,
      "솽": 8831,
      "쇄": 8832,
      "쇠": 8833,
      "쇤": 8834,
      "쇨": 8835,
      "쇱": 8836,
      "쇳": 8837,
      "쇼": 8838,
      "쇽": 8839,
      "숀": 8840,
      "숄": 8841,
      "숍": 8842,
      "숏": 8843,
      "숑": 8844,
      "숔": 8845,
      "숕": 8846,
      "숖": 8847,
      "수": 8848,
      "숙": 8849,
      "순": 8850,
      "숟": 8851,
      "술": 8852,
      "숨": 8853,
      "숩": 8854,
      "숫": 8855,
      "숭": 8856,
      "숯": 8857,
      "숱": 8858,
      "숲": 8859,
      "숴": 8860,
      "숸": 8861,
      "숼": 8862,
      "쉈": 8863,
      "쉐": 8864,
      "쉑": 8865,
      "쉔": 8866,
      "쉘": 8867,
      "쉡": 8868,
      "쉥": 8869,
      "쉪": 8870,
      "쉬": 8871,
      "쉭": 8872,
      "쉰": 8873,
      "쉴": 8874,
      "쉼": 8875,
      "쉽": 8876,
      "쉿": 8877,
      "슁": 8878,
      "슆": 8879,
      "슈": 8880,
      "슉": 8881,
      "슌": 8882,
      "슐": 8883,
      "슘": 8884,
      "슙": 8885,
      "슛": 8886,
      "슝": 8887,
      "슟": 8888,
      "스": 8889,
      "슥": 8890,
      "슨": 8891,
      "슬": 8892,
      "슭": 8893,
      "슮": 8894,
      "슴": 8895,
      "습": 8896,
      "슶": 8897,
      "슷": 8898,
      "승": 8899,
      "슺": 8900,
      "슼": 8901,
      "슾": 8902,
      "싀": 8903,
      "싑": 8904,
      "시": 8905,
      "식": 8906,
      "신": 8907,
      "싣": 8908,
      "실": 8909,
      "싦": 8910,
      "싫": 8911,
      "심": 8912,
      "십": 8913,
      "싯": 8914,
      "싰": 8915,
      "싱": 8916,
      "싲": 8917,
      "싴": 8918,
      "싶": 8919,
      "싸": 8920,
      "싹": 8921,
      "싼": 8922,
      "싿": 8923,
      "쌀": 8924,
      "쌈": 8925,
      "쌉": 8926,
      "쌋": 8927,
      "쌌": 8928,
      "쌍": 8929,
      "쌐": 8930,
      "쌓": 8931,
      "쌔": 8932,
      "쌕": 8933,
      "쌘": 8934,
      "쌜": 8935,
      "쌤": 8936,
      "쌥": 8937,
      "쌧": 8938,
      "쌨": 8939,
      "쌩": 8940,
      "쌰": 8941,
      "쌱": 8942,
      "쌴": 8943,
      "썅": 8944,
      "썜": 8945,
      "썡": 8946,
      "써": 8947,
      "썩": 8948,
      "썪": 8949,
      "썬": 8950,
      "썰": 8951,
      "썸": 8952,
      "썹": 8953,
      "썻": 8954,
      "썼": 8955,
      "썽": 8956,
      "쎄": 8957,
      "쎅": 8958,
      "쎈": 8959,
      "쎌": 8960,
      "쎔": 8961,
      "쎘": 8962,
      "쎙": 8963,
      "쎴": 8964,
      "쎵": 8965,
      "쎼": 8966,
      "쎾": 8967,
      "쏀": 8968,
      "쏘": 8969,
      "쏙": 8970,
      "쏜": 8971,
      "쏟": 8972,
      "쏠": 8973,
      "쏨": 8974,
      "쏩": 8975,
      "쏫": 8976,
      "쏭": 8977,
      "쏯": 8978,
      "쏱": 8979,
      "쏴": 8980,
      "쏵": 8981,
      "쏼": 8982,
      "쐈": 8983,
      "쐐": 8984,
      "쐑": 8985,
      "쐬": 8986,
      "쐰": 8987,
      "쐴": 8988,
      "쑈": 8989,
      "쑝": 8990,
      "쑤": 8991,
      "쑥": 8992,
      "쑨": 8993,
      "쑬": 8994,
      "쑵": 8995,
      "쑹": 8996,
      "쒀": 8997,
      "쒜": 8998,
      "쒯": 8999,
      "쒸": 9000,
      "쒼": 9001,
      "쓔": 9002,
      "쓣": 9003,
      "쓩": 9004,
      "쓰": 9005,
      "쓱": 9006,
      "쓴": 9007,
      "쓸": 9008,
      "씀": 9009,
      "씁": 9010,
      "씃": 9011,
      "씅": 9012,
      "씌": 9013,
      "씐": 9014,
      "씝": 9015,
      "씠": 9016,
      "씡": 9017,
      "씨": 9018,
      "씩": 9019,
      "씪": 9020,
      "씬": 9021,
      "씯": 9022,
      "씰": 9023,
      "씸": 9024,
      "씹": 9025,
      "씻": 9026,
      "씼": 9027,
      "씽": 9028,
      "앃": 9029,
      "아": 9030,
      "악": 9031,
      "안": 9032,
      "앉": 9033,
      "않": 9034,
      "알": 9035,
      "앍": 9036,
      "앎": 9037,
      "앏": 9038,
      "앑": 9039,
      "앓": 9040,
      "암": 9041,
      "압": 9042,
      "앖": 9043,
      "앗": 9044,
      "았": 9045,
      "앙": 9046,
      "앚": 9047,
      "앛": 9048,
      "앜": 9049,
      "앝": 9050,
      "앞": 9051,
      "앟": 9052,
      "애": 9053,
      "액": 9054,
      "앤": 9055,
      "앨": 9056,
      "앰": 9057,
      "앱": 9058,
      "앳": 9059,
      "앴": 9060,
      "앵": 9061,
      "앸": 9062,
      "야": 9063,
      "약": 9064,
      "얀": 9065,
      "얂": 9066,
      "얃": 9067,
      "얄": 9068,
      "얆": 9069,
      "얇": 9070,
      "얉": 9071,
      "얊": 9072,
      "얌": 9073,
      "얍": 9074,
      "얏": 9075,
      "얐": 9076,
      "양": 9077,
      "얔": 9078,
      "얕": 9079,
      "얗": 9080,
      "얘": 9081,
      "얜": 9082,
      "얩": 9083,
      "얭": 9084,
      "어": 9085,
      "억": 9086,
      "얶": 9087,
      "언": 9088,
      "얹": 9089,
      "얻": 9090,
      "얼": 9091,
      "얽": 9092,
      "얾": 9093,
      "얿": 9094,
      "엁": 9095,
      "엄": 9096,
      "업": 9097,
      "없": 9098,
      "엇": 9099,
      "었": 9100,
      "엉": 9101,
      "엊": 9102,
      "엌": 9103,
      "엎": 9104,
      "엏": 9105,
      "에": 9106,
      "엑": 9107,
      "엓": 9108,
      "엔": 9109,
      "엗": 9110,
      "엘": 9111,
      "엠": 9112,
      "엡": 9113,
      "엣": 9114,
      "엥": 9115,
      "엨": 9116,
      "엩": 9117,
      "여": 9118,
      "역": 9119,
      "엮": 9120,
      "연": 9121,
      "열": 9122,
      "엶": 9123,
      "엷": 9124,
      "엸": 9125,
      "염": 9126,
      "엽": 9127,
      "엾": 9128,
      "엿": 9129,
      "였": 9130,
      "영": 9131,
      "옂": 9132,
      "옄": 9133,
      "옅": 9134,
      "옆": 9135,
      "옇": 9136,
      "예": 9137,
      "옌": 9138,
      "옐": 9139,
      "옘": 9140,
      "옙": 9141,
      "옛": 9142,
      "옜": 9143,
      "오": 9144,
      "옥": 9145,
      "온": 9146,
      "옩": 9147,
      "옫": 9148,
      "올": 9149,
      "옭": 9150,
      "옮": 9151,
      "옯": 9152,
      "옳": 9153,
      "옴": 9154,
      "옵": 9155,
      "옷": 9156,
      "옹": 9157,
      "옺": 9158,
      "옻": 9159,
      "옼": 9160,
      "옾": 9161,
      "와": 9162,
      "왁": 9163,
      "완": 9164,
      "왈": 9165,
      "왐": 9166,
      "왑": 9167,
      "왓": 9168,
      "왔": 9169,
      "왕": 9170,
      "왘": 9171,
      "왜": 9172,
      "왝": 9173,
      "왠": 9174,
      "왤": 9175,
      "왬": 9176,
      "왰": 9177,
      "왱": 9178,
      "외": 9179,
      "왼": 9180,
      "욀": 9181,
      "욋": 9182,
      "욌": 9183,
      "욍": 9184,
      "요": 9185,
      "욕": 9186,
      "욘": 9187,
      "욜": 9188,
      "욝": 9189,
      "욤": 9190,
      "욥": 9191,
      "욧": 9192,
      "용": 9193,
      "욬": 9194,
      "욮": 9195,
      "욯": 9196,
      "우": 9197,
      "욱": 9198,
      "운": 9199,
      "울": 9200,
      "욹": 9201,
      "욺": 9202,
      "욿": 9203,
      "움": 9204,
      "웁": 9205,
      "웃": 9206,
      "웄": 9207,
      "웅": 9208,
      "웆": 9209,
      "웇": 9210,
      "워": 9211,
      "웍": 9212,
      "원": 9213,
      "월": 9214,
      "웘": 9215,
      "웜": 9216,
      "웞": 9217,
      "웟": 9218,
      "웠": 9219,
      "웡": 9220,
      "웣": 9221,
      "웤": 9222,
      "웨": 9223,
      "웩": 9224,
      "웬": 9225,
      "웰": 9226,
      "웸": 9227,
      "웹": 9228,
      "웻": 9229,
      "웽": 9230,
      "윀": 9231,
      "위": 9232,
      "윅": 9233,
      "윈": 9234,
      "윌": 9235,
      "윔": 9236,
      "윕": 9237,
      "윗": 9238,
      "윙": 9239,
      "유": 9240,
      "육": 9241,
      "윤": 9242,
      "율": 9243,
      "윰": 9244,
      "윱": 9245,
      "윳": 9246,
      "융": 9247,
      "윶": 9248,
      "윷": 9249,
      "으": 9250,
      "윽": 9251,
      "윾": 9252,
      "은": 9253,
      "읂": 9254,
      "읃": 9255,
      "을": 9256,
      "읆": 9257,
      "읇": 9258,
      "읊": 9259,
      "음": 9260,
      "읍": 9261,
      "읎": 9262,
      "읏": 9263,
      "응": 9264,
      "읒": 9265,
      "읓": 9266,
      "읔": 9267,
      "읕": 9268,
      "읖": 9269,
      "읗": 9270,
      "의": 9271,
      "읜": 9272,
      "읠": 9273,
      "읫": 9274,
      "읭": 9275,
      "읮": 9276,
      "이": 9277,
      "익": 9278,
      "읶": 9279,
      "인": 9280,
      "읹": 9281,
      "읺": 9282,
      "읻": 9283,
      "일": 9284,
      "읽": 9285,
      "잃": 9286,
      "임": 9287,
      "입": 9288,
      "잆": 9289,
      "잇": 9290,
      "있": 9291,
      "잉": 9292,
      "잊": 9293,
      "잋": 9294,
      "잌": 9295,
      "잍": 9296,
      "잎": 9297,
      "잏": 9298,
      "자": 9299,
      "작": 9300,
      "잔": 9301,
      "잖": 9302,
      "잗": 9303,
      "잘": 9304,
      "잠": 9305,
      "잡": 9306,
      "잣": 9307,
      "잤": 9308,
      "장": 9309,
      "잦": 9310,
      "잫": 9311,
      "재": 9312,
      "잭": 9313,
      "잰": 9314,
      "잴": 9315,
      "잼": 9316,
      "잽": 9317,
      "잿": 9318,
      "쟀": 9319,
      "쟁": 9320,
      "쟂": 9321,
      "쟃": 9322,
      "쟈": 9323,
      "쟉": 9324,
      "쟌": 9325,
      "쟎": 9326,
      "쟐": 9327,
      "쟘": 9328,
      "쟙": 9329,
      "쟝": 9330,
      "쟤": 9331,
      "쟨": 9332,
      "저": 9333,
      "적": 9334,
      "전": 9335,
      "젇": 9336,
      "절": 9337,
      "젊": 9338,
      "젋": 9339,
      "점": 9340,
      "접": 9341,
      "젓": 9342,
      "젔": 9343,
      "정": 9344,
      "젖": 9345,
      "젛": 9346,
      "제": 9347,
      "젝": 9348,
      "젠": 9349,
      "젤": 9350,
      "젬": 9351,
      "젭": 9352,
      "젯": 9353,
      "젱": 9354,
      "젲": 9355,
      "젴": 9356,
      "져": 9357,
      "젹": 9358,
      "젺": 9359,
      "젼": 9360,
      "졀": 9361,
      "졈": 9362,
      "졉": 9363,
      "졋": 9364,
      "졌": 9365,
      "졍": 9366,
      "졎": 9367,
      "졔": 9368,
      "졘": 9369,
      "졜": 9370,
      "졤": 9371,
      "조": 9372,
      "족": 9373,
      "존": 9374,
      "졷": 9375,
      "졸": 9376,
      "좀": 9377,
      "좁": 9378,
      "좃": 9379,
      "종": 9380,
      "좆": 9381,
      "좇": 9382,
      "좋": 9383,
      "좌": 9384,
      "좍": 9385,
      "좐": 9386,
      "좔": 9387,
      "좠": 9388,
      "좡": 9389,
      "좥": 9390,
      "좦": 9391,
      "좨": 9392,
      "좼": 9393,
      "죄": 9394,
      "죈": 9395,
      "죌": 9396,
      "죔": 9397,
      "죕": 9398,
      "죗": 9399,
      "죙": 9400,
      "죠": 9401,
      "죡": 9402,
      "죤": 9403,
      "죨": 9404,
      "죰": 9405,
      "죳": 9406,
      "죵": 9407,
      "죶": 9408,
      "죷": 9409,
      "죸": 9410,
      "죻": 9411,
      "주": 9412,
      "죽": 9413,
      "준": 9414,
      "줁": 9415,
      "줃": 9416,
      "줄": 9417,
      "줌": 9418,
      "줍": 9419,
      "줏": 9420,
      "줐": 9421,
      "중": 9422,
      "줒": 9423,
      "줗": 9424,
      "줘": 9425,
      "줠": 9426,
      "줫": 9427,
      "줬": 9428,
      "줭": 9429,
      "줴": 9430,
      "줸": 9431,
      "쥐": 9432,
      "쥑": 9433,
      "쥔": 9434,
      "쥘": 9435,
      "쥠": 9436,
      "쥡": 9437,
      "쥥": 9438,
      "쥬": 9439,
      "쥭": 9440,
      "쥰": 9441,
      "쥴": 9442,
      "쥼": 9443,
      "즁": 9444,
      "즈": 9445,
      "즉": 9446,
      "즌": 9447,
      "즐": 9448,
      "즘": 9449,
      "즙": 9450,
      "증": 9451,
      "즣": 9452,
      "즤": 9453,
      "지": 9454,
      "직": 9455,
      "진": 9456,
      "짆": 9457,
      "짇": 9458,
      "질": 9459,
      "짊": 9460,
      "짐": 9461,
      "집": 9462,
      "짓": 9463,
      "짔": 9464,
      "징": 9465,
      "짖": 9466,
      "짗": 9467,
      "짘": 9468,
      "짙": 9469,
      "짚": 9470,
      "짛": 9471,
      "짜": 9472,
      "짝": 9473,
      "짞": 9474,
      "짠": 9475,
      "짢": 9476,
      "짤": 9477,
      "짦": 9478,
      "짧": 9479,
      "짫": 9480,
      "짬": 9481,
      "짭": 9482,
      "짯": 9483,
      "짰": 9484,
      "짱": 9485,
      "짲": 9486,
      "째": 9487,
      "짹": 9488,
      "짼": 9489,
      "쨀": 9490,
      "쨈": 9491,
      "쨉": 9492,
      "쨋": 9493,
      "쨌": 9494,
      "쨍": 9495,
      "쨎": 9496,
      "쨓": 9497,
      "쨔": 9498,
      "쨕": 9499,
      "쨘": 9500,
      "쨜": 9501,
      "쨩": 9502,
      "쨰": 9503,
      "쨲": 9504,
      "쩃": 9505,
      "쩄": 9506,
      "쩅": 9507,
      "쩌": 9508,
      "쩍": 9509,
      "쩐": 9510,
      "쩔": 9511,
      "쩕": 9512,
      "쩖": 9513,
      "쩗": 9514,
      "쩜": 9515,
      "쩝": 9516,
      "쩟": 9517,
      "쩡": 9518,
      "쩧": 9519,
      "쩨": 9520,
      "쩬": 9521,
      "쩰": 9522,
      "쩻": 9523,
      "쪄": 9524,
      "쪗": 9525,
      "쪘": 9526,
      "쪙": 9527,
      "쪼": 9528,
      "쪽": 9529,
      "쪾": 9530,
      "쫀": 9531,
      "쫄": 9532,
      "쫌": 9533,
      "쫍": 9534,
      "쫏": 9535,
      "쫑": 9536,
      "쫒": 9537,
      "쫓": 9538,
      "쫗": 9539,
      "쫘": 9540,
      "쫙": 9541,
      "쫡": 9542,
      "쫨": 9543,
      "쫭": 9544,
      "쫴": 9545,
      "쬐": 9546,
      "쬔": 9547,
      "쬘": 9548,
      "쬠": 9549,
      "쬡": 9550,
      "쬬": 9551,
      "쬴": 9552,
      "쬼": 9553,
      "쭁": 9554,
      "쭈": 9555,
      "쭉": 9556,
      "쭌": 9557,
      "쭐": 9558,
      "쭘": 9559,
      "쭙": 9560,
      "쭝": 9561,
      "쭤": 9562,
      "쭼": 9563,
      "쮀": 9564,
      "쮜": 9565,
      "쮝": 9566,
      "쮸": 9567,
      "쯍": 9568,
      "쯔": 9569,
      "쯘": 9570,
      "쯤": 9571,
      "쯥": 9572,
      "쯧": 9573,
      "쯩": 9574,
      "쯱": 9575,
      "찌": 9576,
      "찍": 9577,
      "찐": 9578,
      "찔": 9579,
      "찜": 9580,
      "찝": 9581,
      "찟": 9582,
      "찡": 9583,
      "찢": 9584,
      "찧": 9585,
      "차": 9586,
      "착": 9587,
      "찬": 9588,
      "찭": 9589,
      "찮": 9590,
      "찰": 9591,
      "참": 9592,
      "찹": 9593,
      "찻": 9594,
      "찼": 9595,
      "창": 9596,
      "찾": 9597,
      "찿": 9598,
      "챃": 9599,
      "채": 9600,
      "책": 9601,
      "챈": 9602,
      "챌": 9603,
      "챔": 9604,
      "챕": 9605,
      "챗": 9606,
      "챘": 9607,
      "챙": 9608,
      "챠": 9609,
      "챡": 9610,
      "챤": 9611,
      "챦": 9612,
      "챨": 9613,
      "챩": 9614,
      "챰": 9615,
      "챱": 9616,
      "챳": 9617,
      "챵": 9618,
      "처": 9619,
      "척": 9620,
      "천": 9621,
      "철": 9622,
      "첨": 9623,
      "첩": 9624,
      "첫": 9625,
      "첬": 9626,
      "청": 9627,
      "첮": 9628,
      "첯": 9629,
      "체": 9630,
      "첵": 9631,
      "첸": 9632,
      "첼": 9633,
      "쳄": 9634,
      "쳅": 9635,
      "쳇": 9636,
      "쳉": 9637,
      "쳌": 9638,
      "쳐": 9639,
      "쳑": 9640,
      "쳔": 9641,
      "쳘": 9642,
      "쳣": 9643,
      "쳤": 9644,
      "쳥": 9645,
      "쳬": 9646,
      "쳰": 9647,
      "쳾": 9648,
      "초": 9649,
      "촉": 9650,
      "촌": 9651,
      "촐": 9652,
      "촘": 9653,
      "촙": 9654,
      "촛": 9655,
      "총": 9656,
      "촣": 9657,
      "촤": 9658,
      "촥": 9659,
      "촨": 9660,
      "촬": 9661,
      "촴": 9662,
      "촵": 9663,
      "촹": 9664,
      "쵀": 9665,
      "최": 9666,
      "쵝": 9667,
      "쵤": 9668,
      "쵸": 9669,
      "춈": 9670,
      "춍": 9671,
      "추": 9672,
      "축": 9673,
      "춘": 9674,
      "출": 9675,
      "춤": 9676,
      "춥": 9677,
      "춧": 9678,
      "충": 9679,
      "춫": 9680,
      "춯": 9681,
      "춰": 9682,
      "춴": 9683,
      "췃": 9684,
      "췄": 9685,
      "췌": 9686,
      "췐": 9687,
      "췟": 9688,
      "취": 9689,
      "췬": 9690,
      "췰": 9691,
      "췸": 9692,
      "췹": 9693,
      "췽": 9694,
      "츄": 9695,
      "츈": 9696,
      "츌": 9697,
      "츔": 9698,
      "츕": 9699,
      "츙": 9700,
      "츠": 9701,
      "측": 9702,
      "츤": 9703,
      "츧": 9704,
      "츨": 9705,
      "츰": 9706,
      "츱": 9707,
      "츳": 9708,
      "층": 9709,
      "츼": 9710,
      "치": 9711,
      "칙": 9712,
      "친": 9713,
      "칟": 9714,
      "칠": 9715,
      "칡": 9716,
      "칢": 9717,
      "침": 9718,
      "칩": 9719,
      "칫": 9720,
      "칭": 9721,
      "칮": 9722,
      "칰": 9723,
      "칲": 9724,
      "카": 9725,
      "칵": 9726,
      "칸": 9727,
      "칼": 9728,
      "캄": 9729,
      "캅": 9730,
      "캇": 9731,
      "캉": 9732,
      "캌": 9733,
      "캐": 9734,
      "캑": 9735,
      "캔": 9736,
      "캘": 9737,
      "캙": 9738,
      "캠": 9739,
      "캡": 9740,
      "캣": 9741,
      "캤": 9742,
      "캥": 9743,
      "캬": 9744,
      "캭": 9745,
      "컁": 9746,
      "커": 9747,
      "컥": 9748,
      "컨": 9749,
      "컫": 9750,
      "컬": 9751,
      "컴": 9752,
      "컵": 9753,
      "컷": 9754,
      "컸": 9755,
      "컹": 9756,
      "컼": 9757,
      "컾": 9758,
      "케": 9759,
      "켁": 9760,
      "켄": 9761,
      "켇": 9762,
      "켈": 9763,
      "켐": 9764,
      "켑": 9765,
      "켓": 9766,
      "켔": 9767,
      "켕": 9768,
      "켘": 9769,
      "켙": 9770,
      "켜": 9771,
      "켠": 9772,
      "켤": 9773,
      "켬": 9774,
      "켭": 9775,
      "켯": 9776,
      "켰": 9777,
      "켱": 9778,
      "켸": 9779,
      "코": 9780,
      "콕": 9781,
      "콘": 9782,
      "콜": 9783,
      "콤": 9784,
      "콥": 9785,
      "콧": 9786,
      "콩": 9787,
      "콮": 9788,
      "콰": 9789,
      "콱": 9790,
      "콴": 9791,
      "콸": 9792,
      "쾀": 9793,
      "쾃": 9794,
      "쾅": 9795,
      "쾌": 9796,
      "쾡": 9797,
      "쾤": 9798,
      "쾨": 9799,
      "쾰": 9800,
      "쾽": 9801,
      "쿄": 9802,
      "쿙": 9803,
      "쿠": 9804,
      "쿡": 9805,
      "쿤": 9806,
      "쿨": 9807,
      "쿰": 9808,
      "쿱": 9809,
      "쿳": 9810,
      "쿵": 9811,
      "쿸": 9812,
      "쿹": 9813,
      "쿼": 9814,
      "쿽": 9815,
      "퀀": 9816,
      "퀄": 9817,
      "퀎": 9818,
      "퀘": 9819,
      "퀜": 9820,
      "퀠": 9821,
      "퀭": 9822,
      "퀴": 9823,
      "퀵": 9824,
      "퀸": 9825,
      "퀼": 9826,
      "큄": 9827,
      "큅": 9828,
      "큇": 9829,
      "큉": 9830,
      "큐": 9831,
      "큔": 9832,
      "큘": 9833,
      "큠": 9834,
      "큨": 9835,
      "크": 9836,
      "큭": 9837,
      "큰": 9838,
      "클": 9839,
      "큼": 9840,
      "큽": 9841,
      "큿": 9842,
      "킁": 9843,
      "킄": 9844,
      "킌": 9845,
      "킘": 9846,
      "키": 9847,
      "킥": 9848,
      "킨": 9849,
      "킬": 9850,
      "킴": 9851,
      "킵": 9852,
      "킷": 9853,
      "킹": 9854,
      "킼": 9855,
      "킾": 9856,
      "타": 9857,
      "탁": 9858,
      "탄": 9859,
      "탇": 9860,
      "탈": 9861,
      "탉": 9862,
      "탐": 9863,
      "탑": 9864,
      "탓": 9865,
      "탔": 9866,
      "탕": 9867,
      "탙": 9868,
      "태": 9869,
      "택": 9870,
      "탞": 9871,
      "탠": 9872,
      "탤": 9873,
      "탬": 9874,
      "탭": 9875,
      "탯": 9876,
      "탰": 9877,
      "탱": 9878,
      "탶": 9879,
      "탸": 9880,
      "탹": 9881,
      "턉": 9882,
      "턔": 9883,
      "터": 9884,
      "턱": 9885,
      "턴": 9886,
      "털": 9887,
      "텀": 9888,
      "텁": 9889,
      "텃": 9890,
      "텄": 9891,
      "텅": 9892,
      "텉": 9893,
      "테": 9894,
      "텍": 9895,
      "텐": 9896,
      "텔": 9897,
      "템": 9898,
      "텝": 9899,
      "텟": 9900,
      "텡": 9901,
      "텤": 9902,
      "텥": 9903,
      "텧": 9904,
      "텨": 9905,
      "텬": 9906,
      "텻": 9907,
      "텼": 9908,
      "톄": 9909,
      "톈": 9910,
      "토": 9911,
      "톡": 9912,
      "톤": 9913,
      "톧": 9914,
      "톨": 9915,
      "톰": 9916,
      "톱": 9917,
      "톳": 9918,
      "통": 9919,
      "톺": 9920,
      "톼": 9921,
      "퇀": 9922,
      "퇄": 9923,
      "퇐": 9924,
      "퇘": 9925,
      "퇴": 9926,
      "퇼": 9927,
      "툇": 9928,
      "툉": 9929,
      "툐": 9930,
      "툠": 9931,
      "툥": 9932,
      "툩": 9933,
      "투": 9934,
      "툭": 9935,
      "툰": 9936,
      "툴": 9937,
      "툼": 9938,
      "툽": 9939,
      "툿": 9940,
      "퉁": 9941,
      "퉈": 9942,
      "퉜": 9943,
      "퉤": 9944,
      "퉷": 9945,
      "튀": 9946,
      "튁": 9947,
      "튄": 9948,
      "튈": 9949,
      "튐": 9950,
      "튑": 9951,
      "튓": 9952,
      "튕": 9953,
      "튜": 9954,
      "튝": 9955,
      "튠": 9956,
      "튤": 9957,
      "튬": 9958,
      "튭": 9959,
      "튳": 9960,
      "트": 9961,
      "특": 9962,
      "튼": 9963,
      "튿": 9964,
      "틀": 9965,
      "틁": 9966,
      "틈": 9967,
      "틉": 9968,
      "틋": 9969,
      "틍": 9970,
      "틑": 9971,
      "틔": 9972,
      "틧": 9973,
      "틩": 9974,
      "티": 9975,
      "틱": 9976,
      "틴": 9977,
      "틸": 9978,
      "팀": 9979,
      "팁": 9980,
      "팃": 9981,
      "팅": 9982,
      "팋": 9983,
      "파": 9984,
      "팍": 9985,
      "팎": 9986,
      "판": 9987,
      "팔": 9988,
      "팖": 9989,
      "팜": 9990,
      "팝": 9991,
      "팟": 9992,
      "팠": 9993,
      "팡": 9994,
      "팤": 9995,
      "팥": 9996,
      "팦": 9997,
      "패": 9998,
      "팩": 9999,
      "팬": 10000,
      "팰": 10001,
      "팸": 10002,
      "팹": 10003,
      "팻": 10004,
      "팼": 10005,
      "팽": 10006,
      "퍀": 10007,
      "퍄": 10008,
      "퍅": 10009,
      "퍈": 10010,
      "퍘": 10011,
      "퍠": 10012,
      "퍼": 10013,
      "퍽": 10014,
      "펀": 10015,
      "펄": 10016,
      "펌": 10017,
      "펍": 10018,
      "펏": 10019,
      "펐": 10020,
      "펑": 10021,
      "페": 10022,
      "펙": 10023,
      "펜": 10024,
      "펠": 10025,
      "펨": 10026,
      "펩": 10027,
      "펫": 10028,
      "펭": 10029,
      "펲": 10030,
      "펴": 10031,
      "편": 10032,
      "펼": 10033,
      "폄": 10034,
      "폅": 10035,
      "폇": 10036,
      "폈": 10037,
      "평": 10038,
      "폋": 10039,
      "폐": 10040,
      "폔": 10041,
      "포": 10042,
      "폭": 10043,
      "폰": 10044,
      "폴": 10045,
      "폼": 10046,
      "폽": 10047,
      "폿": 10048,
      "퐁": 10049,
      "퐈": 10050,
      "퐉": 10051,
      "퐌": 10052,
      "퐐": 10053,
      "퐝": 10054,
      "퐣": 10055,
      "푀": 10056,
      "푄": 10057,
      "푈": 10058,
      "표": 10059,
      "푝": 10060,
      "푠": 10061,
      "푤": 10062,
      "푭": 10063,
      "푯": 10064,
      "푱": 10065,
      "푸": 10066,
      "푹": 10067,
      "푼": 10068,
      "풀": 10069,
      "풂": 10070,
      "품": 10071,
      "풉": 10072,
      "풋": 10073,
      "풍": 10074,
      "풑": 10075,
      "풔": 10076,
      "풴": 10077,
      "퓌": 10078,
      "퓐": 10079,
      "퓔": 10080,
      "퓨": 10081,
      "퓰": 10082,
      "퓸": 10083,
      "프": 10084,
      "픈": 10085,
      "플": 10086,
      "픒": 10087,
      "픔": 10088,
      "픕": 10089,
      "픗": 10090,
      "픙": 10091,
      "픞": 10092,
      "피": 10093,
      "픽": 10094,
      "핀": 10095,
      "필": 10096,
      "핆": 10097,
      "핌": 10098,
      "핍": 10099,
      "핏": 10100,
      "핑": 10101,
      "핗": 10102,
      "하": 10103,
      "학": 10104,
      "핚": 10105,
      "핛": 10106,
      "한": 10107,
      "핝": 10108,
      "핟": 10109,
      "할": 10110,
      "핡": 10111,
      "핥": 10112,
      "핧": 10113,
      "함": 10114,
      "합": 10115,
      "핫": 10116,
      "핬": 10117,
      "항": 10118,
      "핮": 10119,
      "핰": 10120,
      "핳": 10121,
      "해": 10122,
      "핵": 10123,
      "핸": 10124,
      "핼": 10125,
      "햄": 10126,
      "햅": 10127,
      "햇": 10128,
      "했": 10129,
      "행": 10130,
      "햊": 10131,
      "햍": 10132,
      "햎": 10133,
      "햏": 10134,
      "햐": 10135,
      "햑": 10136,
      "햔": 10137,
      "햘": 10138,
      "햙": 10139,
      "햝": 10140,
      "햠": 10141,
      "햣": 10142,
      "향": 10143,
      "햫": 10144,
      "햬": 10145,
      "헀": 10146,
      "허": 10147,
      "헉": 10148,
      "헌": 10149,
      "헐": 10150,
      "험": 10151,
      "헙": 10152,
      "헛": 10153,
      "헝": 10154,
      "헠": 10155,
      "헡": 10156,
      "헣": 10157,
      "헤": 10158,
      "헥": 10159,
      "헨": 10160,
      "헫": 10161,
      "헬": 10162,
      "헴": 10163,
      "헵": 10164,
      "헷": 10165,
      "헸": 10166,
      "헹": 10167,
      "헿": 10168,
      "혀": 10169,
      "혁": 10170,
      "현": 10171,
      "혆": 10172,
      "혈": 10173,
      "혐": 10174,
      "협": 10175,
      "혓": 10176,
      "혔": 10177,
      "형": 10178,
      "혜": 10179,
      "혯": 10180,
      "호": 10181,
      "혹": 10182,
      "혼": 10183,
      "홀": 10184,
      "홅": 10185,
      "홈": 10186,
      "홉": 10187,
      "홋": 10188,
      "홍": 10189,
      "홑": 10190,
      "화": 10191,
      "확": 10192,
      "환": 10193,
      "활": 10194,
      "홤": 10195,
      "홥": 10196,
      "홧": 10197,
      "황": 10198,
      "홬": 10199,
      "홰": 10200,
      "홱": 10201,
      "횃": 10202,
      "횅": 10203,
      "회": 10204,
      "획": 10205,
      "횐": 10206,
      "횔": 10207,
      "횟": 10208,
      "횡": 10209,
      "효": 10210,
      "횩": 10211,
      "횬": 10212,
      "횽": 10213,
      "후": 10214,
      "훅": 10215,
      "훈": 10216,
      "훌": 10217,
      "훍": 10218,
      "훑": 10219,
      "훓": 10220,
      "훔": 10221,
      "훕": 10222,
      "훗": 10223,
      "훙": 10224,
      "훝": 10225,
      "훞": 10226,
      "훠": 10227,
      "훡": 10228,
      "훤": 10229,
      "훨": 10230,
      "훱": 10231,
      "훵": 10232,
      "훼": 10233,
      "훽": 10234,
      "휀": 10235,
      "휄": 10236,
      "휏": 10237,
      "휑": 10238,
      "휘": 10239,
      "휙": 10240,
      "휜": 10241,
      "휠": 10242,
      "휨": 10243,
      "휩": 10244,
      "휫": 10245,
      "휭": 10246,
      "휴": 10247,
      "휵": 10248,
      "휸": 10249,
      "휼": 10250,
      "흄": 10251,
      "흉": 10252,
      "흐": 10253,
      "흑": 10254,
      "흔": 10255,
      "흖": 10256,
      "흗": 10257,
      "흘": 10258,
      "흙": 10259,
      "흛": 10260,
      "흝": 10261,
      "흠": 10262,
      "흡": 10263,
      "흣": 10264,
      "흥": 10265,
      "흨": 10266,
      "흩": 10267,
      "흫": 10268,
      "희": 10269,
      "흭": 10270,
      "흰": 10271,
      "흴": 10272,
      "흼": 10273,
      "흽": 10274,
      "힁": 10275,
      "히": 10276,
      "힉": 10277,
      "힌": 10278,
      "힏": 10279,
      "힐": 10280,
      "힘": 10281,
      "힙": 10282,
      "힛": 10283,
      "힜": 10284,
      "힝": 10285,
      "힠": 10286,
      "힢": 10287,
      "힣": 10288,
      "ﬁ": 10289,
      "ﬂ": 10290,
      "︎": 10291,
      "️": 10292,
      "︱": 10293,
      "︿": 10294,
      "﹃": 10295,
      "﹄": 10296,
      "﹌": 10297,
      "﹒": 10298,
      "﹛": 10299,
      "﹜": 10300,
      "﹝": 10301,
      "﹞": 10302,
      "ﻌ": 10303,
      "ﻪ": 10304,
      "ﻴ": 10305,
      "！": 10306,
      "＂": 10307,
      "＃": 10308,
      "＄": 10309,
      "％": 10310,
      "＆": 10311,
      "＇": 10312,
      "（": 10313,
      "）": 10314,
      "＊": 10315,
      "＋": 10316,
      "，": 10317,
      "－": 10318,
      "．": 10319,
      "／": 10320,
      "０": 10321,
      "１": 10322,
      "２": 10323,
      "３": 10324,
      "４": 10325,
      "５": 10326,
      "６": 10327,
      "７": 10328,
      "８": 10329,
      "９": 10330,
      "：": 10331,
      "；": 10332,
      "＜": 10333,
      "＝": 10334,
      "＞": 10335,
      "？": 10336,
      "＠": 10337,
      "Ａ": 10338,
      "Ｂ": 10339,
      "Ｃ": 10340,
      "Ｄ": 10341,
      "Ｅ": 10342,
      "Ｆ": 10343,
      "Ｇ": 10344,
      "Ｈ": 10345,
      "Ｉ": 10346,
      "Ｊ": 10347,
      "Ｋ": 10348,
      "Ｌ": 10349,
      "Ｍ": 10350,
      "Ｎ": 10351,
      "Ｏ": 10352,
      "Ｐ": 10353,
      "Ｑ": 10354,
      "Ｒ": 10355,
      "Ｓ": 10356,
      "Ｔ": 10357,
      "Ｕ": 10358,
      "Ｖ": 10359,
      "Ｗ": 10360,
      "Ｘ": 10361,
      "Ｙ": 10362,
      "Ｚ": 10363,
      "［": 10364,
      "＼": 10365,
      "］": 10366,
      "＾": 10367,
      "＿": 10368,
      "｀": 10369,
      "ａ": 10370,
      "ｂ": 10371,
      "ｃ": 10372,
      "ｄ": 10373,
      "ｅ": 10374,
      "ｆ": 10375,
      "ｇ": 10376,
      "ｈ": 10377,
      "ｉ": 10378,
      "ｊ": 10379,
      "ｋ": 10380,
      "ｌ": 10381,
      "ｍ": 10382,
      "ｎ": 10383,
      "ｏ": 10384,
      "ｐ": 10385,
      "ｒ": 10386,
      "ｓ": 10387,
      "ｔ": 10388,
      "ｕ": 10389,
      "ｖ": 10390,
      "ｗ": 10391,
      "ｘ": 10392,
      "ｙ": 10393,
      "ｚ": 10394,
      "｜": 10395,
      "～": 10396,
      "｡": 10397,
      "｢": 10398,
      "｣": 10399,
      "､": 10400,
      "･": 10401,
      "ｬ": 10402,
      "ｰ": 10403,
      "ｱ": 10404,
      "ｳ": 10405,
      "ｴ": 10406,
      "ｶ": 10407,
      "ｷ": 10408,
      "ｸ": 10409,
      "ｻ": 10410,
      "ｽ": 10411,
      "ﾅ": 10412,
      "ﾇ": 10413,
      "ﾉ": 10414,
      "ﾊ": 10415,
      "ﾎ": 10416,
      "ﾙ": 10417,
      "ﾛ": 10418,
      "ﾟ": 10419,
      "￡": 10420,
      "￣": 10421,
      "￥": 10422,
      "￦": 10423,
      "￩": 10424,
      "￫": 10425,
      "￭": 10426,
      "�": 10427,
      "𐤟": 10428,
      "𝒳": 10429,
      "𝛼": 10430,
      "𝛽": 10431,
      "🆕": 10432,
      "🇦": 10433,
      "🇭": 10434,
      "🇰": 10435,
      "🇷": 10436,
      "🇹": 10437,
      "🌈": 10438,
      "🌊": 10439,
      "🌌": 10440,
      "🌎": 10441,
      "🌏": 10442,
      "🌑": 10443,
      "🌔": 10444,
      "🌙": 10445,
      "🌚": 10446,
      "🌛": 10447,
      "🌜": 10448,
      "🌟": 10449,
      "🌠": 10450,
      "🌱": 10451,
      "🌶": 10452,
      "🌸": 10453,
      "🌹": 10454,
      "🌺": 10455,
      "🌼": 10456,
      "🌾": 10457,
      "🌿": 10458,
      "🍀": 10459,
      "🍁": 10460,
      "🍃": 10461,
      "🍇": 10462,
      "🍑": 10463,
      "🍜": 10464,
      "🍞": 10465,
      "🍩": 10466,
      "🍰": 10467,
      "🍲": 10468,
      "🍷": 10469,
      "🍻": 10470,
      "🍾": 10471,
      "🎀": 10472,
      "🎁": 10473,
      "🎂": 10474,
      "🎃": 10475,
      "🎈": 10476,
      "🎉": 10477,
      "🎌": 10478,
      "🎖": 10479,
      "🎞": 10480,
      "🎡": 10481,
      "🎨": 10482,
      "🎬": 10483,
      "🎶": 10484,
      "🏀": 10485,
      "🏃": 10486,
      "🏠": 10487,
      "🏡": 10488,
      "🏻": 10489,
      "🏼": 10490,
      "🏿": 10491,
      "🐕": 10492,
      "🐘": 10493,
      "🐙": 10494,
      "🐰": 10495,
      "🐶": 10496,
      "🐻": 10497,
      "🐾": 10498,
      "👀": 10499,
      "👇": 10500,
      "👉": 10501,
      "👊": 10502,
      "👋": 10503,
      "👌": 10504,
      "👍": 10505,
      "👎": 10506,
      "👏": 10507,
      "👣": 10508,
      "👦": 10509,
      "👧": 10510,
      "👨": 10511,
      "👩": 10512,
      "👫": 10513,
      "👶": 10514,
      "👻": 10515,
      "👼": 10516,
      "💁": 10517,
      "💆": 10518,
      "💋": 10519,
      "💎": 10520,
      "💑": 10521,
      "💓": 10522,
      "💕": 10523,
      "💖": 10524,
      "💗": 10525,
      "💘": 10526,
      "💙": 10527,
      "💛": 10528,
      "💜": 10529,
      "💝": 10530,
      "💞": 10531,
      "💡": 10532,
      "💢": 10533,
      "💥": 10534,
      "💦": 10535,
      "💨": 10536,
      "💫": 10537,
      "💬": 10538,
      "💸": 10539,
      "💻": 10540,
      "📌": 10541,
      "📍": 10542,
      "📖": 10543,
      "📚": 10544,
      "📞": 10545,
      "📰": 10546,
      "📶": 10547,
      "📷": 10548,
      "📸": 10549,
      "📺": 10550,
      "🔄": 10551,
      "🔆": 10552,
      "🔊": 10553,
      "🔎": 10554,
      "🔜": 10555,
      "🔝": 10556,
      "🔥": 10557,
      "🔫": 10558,
      "🔴": 10559,
      "🔸": 10560,
      "🕓": 10561,
      "🕰": 10562,
      "🕺": 10563,
      "🖒": 10564,
      "🖤": 10565,
      "🖱": 10566,
      "🗣": 10567,
      "🗽": 10568,
      "😀": 10569,
      "😁": 10570,
      "😂": 10571,
      "😃": 10572,
      "😄": 10573,
      "😅": 10574,
      "😆": 10575,
      "😈": 10576,
      "😉": 10577,
      "😊": 10578,
      "😋": 10579,
      "😌": 10580,
      "😍": 10581,
      "😎": 10582,
      "😏": 10583,
      "😐": 10584,
      "😔": 10585,
      "😖": 10586,
      "😗": 10587,
      "😘": 10588,
      "😙": 10589,
      "😚": 10590,
      "😛": 10591,
      "😜": 10592,
      "😝": 10593,
      "😡": 10594,
      "😢": 10595,
      "😤": 10596,
      "😨": 10597,
      "😭": 10598,
      "😰": 10599,
      "😱": 10600,
      "😳": 10601,
      "😵": 10602,
      "😶": 10603,
      "😻": 10604,
      "🙀": 10605,
      "🙁": 10606,
      "🙂": 10607,
      "🙄": 10608,
      "🙆": 10609,
      "🙇": 10610,
      "🙈": 10611,
      "🙋": 10612,
      "🙌": 10613,
      "🙍": 10614,
      "🙎": 10615,
      "🙏": 10616,
      "🚀": 10617,
      "🚗": 10618,
      "🚤": 10619,
      "🚫": 10620,
      "🛠": 10621,
      "🤔": 10622,
      "🤖": 10623,
      "🤗": 10624,
      "🤘": 10625,
      "🤣": 10626,
      "🤦": 10627,
      "🤩": 10628,
      "🤪": 10629,
      "🤬": 10630,
      "🤭": 10631,
      "🤯": 10632,
      "🥀": 10633,
      "🥊": 10634,
      "🥗": 10635,
      "🥘": 10636,
      "🥰": 10637,
      "🦄": 10638,
      "🧀": 10639,
      "🧡": 10640,
      "󰡔": 10641,
      "󰡕": 10642,
      "다.": 10643,
      "▁이": 10644,
      "▁있": 10645,
      "니다.": 10646,
      "▁수": 10647,
      "▁사": 10648,
      "으로": 10649,
      "▁그": 10650,
      "에서": 10651,
      "▁대": 10652,
      "▁1": 10653,
      "▁가": 10654,
      "▁기": 10655,
      "▁하": 10656,
      "▁것": 10657,
      "▁아": 10658,
      "▁지": 10659,
      "▁시": 10660,
      "▁2": 10661,
      "습니다.": 10662,
      "▁전": 10663,
      "▁-": 10664,
      "▁한": 10665,
      "▁제": 10666,
      "▁보": 10667,
      "▁정": 10668,
      "하는": 10669,
      "▁다": 10670,
      "▁자": 10671,
      "▁주": 10672,
      "하고": 10673,
      "▁위": 10674,
      "▁경": 10675,
      "..": 10676,
      "▁인": 10677,
      "▁모": 10678,
      "▁등": 10679,
      "▁나": 10680,
      "▁일": 10681,
      "▁공": 10682,
      "▁중": 10683,
      "▁부": 10684,
      "▁상": 10685,
      "▁있는": 10686,
      "▁어": 10687,
      "이다.": 10688,
      "▁않": 10689,
      "▁고": 10690,
      "▁여": 10691,
      "▁해": 10692,
      "▁내": 10693,
      "00": 10694,
      "▁개": 10695,
      "▁관": 10696,
      "▁소": 10697,
      "▁마": 10698,
      "▁없": 10699,
      "▁오": 10700,
      "▁서": 10701,
      "▁비": 10702,
      "▁유": 10703,
      "했다.": 10704,
      "▁‘": 10705,
      "▁3": 10706,
      "▁무": 10707,
      "▁바": 10708,
      "▁조": 10709,
      "▁만": 10710,
      "▁및": 10711,
      "▁생": 10712,
      "▁구": 10713,
      "▁있습니다.": 10714,
      "▁의": 10715,
      "▁때": 10716,
      "▁있다.": 10717,
      "▁우": 10718,
      "▁연": 10719,
      "▁신": 10720,
      "▁스": 10721,
      "▁발": 10722,
      "합니다.": 10723,
      "▁미": 10724,
      "▁통": 10725,
      "▁안": 10726,
      "▁선": 10727,
      "▁(": 10728,
      "▁문": 10729,
      "지만": 10730,
      "▁방": 10731,
      "01": 10732,
      "▁말": 10733,
      "요.": 10734,
      "▁도": 10735,
      "▁세": 10736,
      "▁동": 10737,
      "들이": 10738,
      "하여": 10739,
      "▁되": 10740,
      "▁최": 10741,
      "▁예": 10742,
      "▁국": 10743,
      "er": 10744,
      "▁또": 10745,
      "▁성": 10746,
      "▁“": 10747,
      "에게": 10748,
      "적인": 10749,
      "▁영": 10750,
      "▁저": 10751,
      "▁실": 10752,
      "입니다.": 10753,
      "다는": 10754,
      "▁분": 10755,
      "in": 10756,
      "이라": 10757,
      "▁같": 10758,
      "▁더": 10759,
      "▁교": 10760,
      "에는": 10761,
      "하게": 10762,
      "▁경우": 10763,
      "▁많": 10764,
      "▁사용": 10765,
      "▁거": 10766,
      "▁회": 10767,
      "▁진": 10768,
      "▁장": 10769,
      "▁불": 10770,
      "▁4": 10771,
      "▁대한": 10772,
      "다고": 10773,
      "▁현": 10774,
      "고,": 10775,
      "적으로": 10776,
      "까지": 10777,
      "on": 10778,
      "▁결": 10779,
      "▁따": 10780,
      "▁알": 10781,
      "▁5": 10782,
      "an": 10783,
      "▁이용": 10784,
      "▁사람": 10785,
      "▁원": 10786,
      "▁설": 10787,
      "▁강": 10788,
      "▁재": 10789,
      "었다.": 10790,
      "▁'": 10791,
      "▁후": 10792,
      "▁추": 10793,
      "▁작": 10794,
      "▁계": 10795,
      "▁특": 10796,
      "or": 10797,
      "▁201": 10798,
      "▁S": 10799,
      "▁할": 10800,
      "▁반": 10801,
      "▁요": 10802,
      "▁노": 10803,
      "▁매": 10804,
      "▁프": 10805,
      "▁적": 10806,
      "▁받": 10807,
      "▁좋": 10808,
      "▁확": 10809,
      "▁당": 10810,
      "하기": 10811,
      "▁배": 10812,
      "▁\"": 10813,
      "▁우리": 10814,
      "면서": 10815,
      "부터": 10816,
      "▁단": 10817,
      "비스": 10818,
      "▁들": 10819,
      "▁포": 10820,
      "▁위해": 10821,
      "▁:": 10822,
      "▁파": 10823,
      "▁입": 10824,
      "▁감": 10825,
      "▁C": 10826,
      "▁남": 10827,
      "며,": 10828,
      "▁차": 10829,
      "는데": 10830,
      "들은": 10831,
      "한다.": 10832,
      "▁게": 10833,
      "▁필": 10834,
      "st": 10835,
      "▁참": 10836,
      "들의": 10837,
      "▁t": 10838,
      "▁A": 10839,
      "...": 10840,
      "▁호": 10841,
      "▁출": 10842,
      "▁|": 10843,
      "en": 10844,
      "▁물": 10845,
      "▁과": 10846,
      "▁것이": 10847,
      "at": 10848,
      "▁함": 10849,
      "▁김": 10850,
      "▁본": 10851,
      "▁가능": 10852,
      "▁아니": 10853,
      "▁제공": 10854,
      "ar": 10855,
      "▁건": 10856,
      "▁학": 10857,
      "하지": 10858,
      "▁역": 10859,
      "▁생각": 10860,
      "리고": 10861,
      "▁행": 10862,
      "le": 10863,
      "▁서비스": 10864,
      "▁6": 10865,
      "▁통해": 10866,
      "▁두": 10867,
      "▁한국": 10868,
      "▁목": 10869,
      "▁때문": 10870,
      "▁하나": 10871,
      "--": 10872,
      "이트": 10873,
      "▁운": 10874,
      "▁하는": 10875,
      "▁정보": 10876,
      "▁변": 10877,
      "▁직": 10878,
      "▁올": 10879,
      "al": 10880,
      "▁피": 10881,
      "▁새": 10882,
      "am": 10883,
      "들을": 10884,
      "▁M": 10885,
      "▁평": 10886,
      "▁P": 10887,
      "▁데": 10888,
      "▁열": 10889,
      "니다": 10890,
      "▁T": 10891,
      "▁편": 10892,
      "▁[": 10893,
      "▁명": 10894,
      "▁10": 10895,
      "▁활": 10896,
      "▁달": 10897,
      "▁금": 10898,
      "도록": 10899,
      "▁못": 10900,
      "▁체": 10901,
      "om": 10902,
      "▁따라": 10903,
      "▁드": 10904,
      "▁간": 10905,
      "▁살": 10906,
      "▁잘": 10907,
      "▁함께": 10908,
      "▁7": 10909,
      "▁다른": 10910,
      "▁화": 10911,
      "he": 10912,
      "re": 10913,
      "되어": 10914,
      "에서는": 10915,
      "▁같은": 10916,
      "이나": 10917,
      "▁I": 10918,
      "기를": 10919,
      "▁필요": 10920,
      "되는": 10921,
      "▁외": 10922,
      "▁항": 10923,
      "▁개인": 10924,
      "라고": 10925,
      "▁문제": 10926,
      "▁프로": 10927,
      "▁아이": 10928,
      "▁된": 10929,
      "해서": 10930,
      "▁환": 10931,
      "거나": 10932,
      "||": 10933,
      "▁처": 10934,
      "이지": 10935,
      "it": 10936,
      "정보": 10937,
      "▁리": 10938,
      "▁초": 10939,
      "▁모든": 10940,
      "▁점": 10941,
      "▁있으": 10942,
      "라는": 10943,
      "▁집": 10944,
      "▁각": 10945,
      "▁19": 10946,
      "▁메": 10947,
      "▁8": 10948,
      "▁것이다.": 10949,
      "▁카": 10950,
      "▁지난": 10951,
      "▁약": 10952,
      "▁만들": 10953,
      "ic": 10954,
      "▁그러": 10955,
      "▁종": 10956,
      "▁산": 10957,
      "▁또는": 10958,
      "▁한다.": 10959,
      "▁시작": 10960,
      "다면": 10961,
      "▁많은": 10962,
      "▁에": 10963,
      "▁그리고": 10964,
      "스트": 10965,
      "▁가장": 10966,
      "▁시간": 10967,
      "▁심": 10968,
      "▁박": 10969,
      "에도": 10970,
      "▁위한": 10971,
      "됩니다.": 10972,
      "▁디": 10973,
      "▁B": 10974,
      "▁음": 10975,
      "▁타": 10976,
      "다”": 10977,
      "▁표": 10978,
      "▁검": 10979,
      "▁양": 10980,
      "▁찾": 10981,
      "▁청": 10982,
      "▁높": 10983,
      "▁들어": 10984,
      "▁맞": 10985,
      "▁크": 10986,
      "▁앞": 10987,
      "▁있어": 10988,
      "▁판": 10989,
      "지는": 10990,
      "하면": 10991,
      "▁식": 10992,
      "▁자신": 10993,
      "▁속": 10994,
      "▁법": 10995,
      "▁책": 10996,
      "▁것은": 10997,
      "▁L": 10998,
      "▁손": 10999,
      "▁9": 11000,
      "▁관련": 11001,
      "▁고객": 11002,
      "▁언": 11003,
      "▁업": 11004,
      "▁D": 11005,
      "▁제품": 11006,
      "▁합니다.": 11007,
      "▁미국": 11008,
      "이라고": 11009,
      "▁것을": 11010,
      "▁내용": 11011,
      "▁로": 11012,
      "▁이상": 11013,
      "였다.": 11014,
      "리는": 11015,
      "▁또한": 11016,
      "▁증": 11017,
      "▁투": 11018,
      "레이": 11019,
      "▁치": 11020,
      "▁번": 11021,
      "▁했": 11022,
      "ou": 11023,
      "시간": 11024,
      "해야": 11025,
      "▁것으로": 11026,
      "▁다양": 11027,
      "대로": 11028,
      "▁온": 11029,
      "▁완": 11030,
      "▁사회": 11031,
      "es": 11032,
      "보다": 11033,
      "▁취": 11034,
      "▁무료": 11035,
      "리를": 11036,
      "▁누": 11037,
      "ion": 11038,
      "▁때문에": 11039,
      "▁근": 11040,
      "▁복": 11041,
      "▁느": 11042,
      "▁진행": 11043,
      "▁R": 11044,
      "▁라": 11045,
      "자가": 11046,
      "▁세계": 11047,
      "▁코": 11048,
      "▁확인": 11049,
      "▁글": 11050,
      "▁지원": 11051,
      "ing": 11052,
      "▁버": 11053,
      "▁독": 11054,
      "▁E": 11055,
      "▁민": 11056,
      "▁돌": 11057,
      "▁200": 11058,
      "is": 11059,
      "페이지": 11060,
      "▁다음": 11061,
      "▁총": 11062,
      "ed": 11063,
      "▁지역": 11064,
      "사를": 11065,
      "기에": 11066,
      "▁창": 11067,
      "▁호텔": 11068,
      "로운": 11069,
      "지만,": 11070,
      "▁임": 11071,
      "▁대해": 11072,
      "▁시설": 11073,
      "▁준": 11074,
      "▁여러": 11075,
      "▁북": 11076,
      "센터": 11077,
      "▁<": 11078,
      "요?": 11079,
      "il": 11080,
      "▁싶": 11081,
      "▁W": 11082,
      "▁곳": 11083,
      "▁회원": 11084,
      "▁걸": 11085,
      "▁날": 11086,
      "▁f": 11087,
      "▁가지": 11088,
      "▁트": 11089,
      "▁c": 11090,
      "성을": 11091,
      "▁광": 11092,
      "자의": 11093,
      "▁방법": 11094,
      "▁밝": 11095,
      "기도": 11096,
      "▁모두": 11097,
      "▁s": 11098,
      "▁너": 11099,
      "▁형": 11100,
      "▁채": 11101,
      "▁담": 11102,
      "▁다양한": 11103,
      "▁충": 11104,
      "▁커": 11105,
      "▁이번": 11106,
      "▁없는": 11107,
      "▁그런": 11108,
      "▁애": 11109,
      "▁F": 11110,
      "▁K": 11111,
      "지를": 11112,
      "들에게": 11113,
      "▁큰": 11114,
      "▁않는": 11115,
      "▁하고": 11116,
      "▁정도": 11117,
      "▁G": 11118,
      "▁H": 11119,
      "▁0": 11120,
      "▁먹": 11121,
      "었습니다.": 11122,
      ".c": 11123,
      "▁많이": 11124,
      "하며": 11125,
      "▁될": 11126,
      "▁p": 11127,
      "처럼": 11128,
      "▁기술": 11129,
      "of": 11130,
      "el": 11131,
      "▁운영": 11132,
      "▁규": 11133,
      "자는": 11134,
      "▁접": 11135,
      "et": 11136,
      "▁서울": 11137,
      "▁교육": 11138,
      "았다.": 11139,
      "▁상품": 11140,
      "▁권": 11141,
      "ac": 11142,
      "이라는": 11143,
      "▁12": 11144,
      "▁the": 11145,
      "),": 11146,
      "▁아니라": 11147,
      "▁네": 11148,
      "ro": 11149,
      "▁회사": 11150,
      "▁순": 11151,
      "▁다시": 11152,
      "▁절": 11153,
      "렇게": 11154,
      "ht": 11155,
      "▁바로": 11156,
      "▁있을": 11157,
      "▁눈": 11158,
      "▁질": 11159,
      "▁w": 11160,
      "▁클": 11161,
      "▁합": 11162,
      "그램": 11163,
      "▁지금": 11164,
      "▁인터": 11165,
      "하시": 11166,
      "주의": 11167,
      "▁좋은": 11168,
      "▁여행": 11169,
      "▁사실": 11170,
      "and": 11171,
      "▁친": 11172,
      "▁줄": 11173,
      "▁연구": 11174,
      "▁현재": 11175,
      "▁20": 11176,
      "▁11": 11177,
      "----": 11178,
      "▁발생": 11179,
      "서는": 11180,
      ".1": 11181,
      "▁태": 11182,
      "201": 11183,
      "장을": 11184,
      "▁기자": 11185,
      "▁하지만": 11186,
      "▁대표": 11187,
      "▁힘": 11188,
      "기가": 11189,
      "000": 11190,
      "▁효": 11191,
      "정을": 11192,
      "▁토": 11193,
      "as": 11194,
      "▁이런": 11195,
      "▁브": 11196,
      "▁사업": 11197,
      "력을": 11198,
      "▁볼": 11199,
      "▁#": 11200,
      "▁플": 11201,
      "세요.": 11202,
      ".0": 11203,
      "▁그래": 11204,
      "▁중요": 11205,
      "▁항공": 11206,
      "▁정부": 11207,
      "▁어떤": 11208,
      "▁레": 11209,
      "▁얼": 11210,
      "▁마음": 11211,
      "▁중국": 11212,
      "▁향": 11213,
      "하다.": 11214,
      "ex": 11215,
      "▁사진": 11216,
      "▁/": 11217,
      "▁N": 11218,
      "▁이미": 11219,
      "▁b": 11220,
      "▁기업": 11221,
      "학교": 11222,
      "▁개인정보": 11223,
      "▁별": 11224,
      "▁개발": 11225,
      "▁1.": 11226,
      "▁선택": 11227,
      "▁갖": 11228,
      "이는": 11229,
      "▁베": 11230,
      "▁등을": 11231,
      "▁관계": 11232,
      "▁즐": 11233,
      "▁협": 11234,
      "▁이어": 11235,
      "스템": 11236,
      "하고,": 11237,
      "ent": 11238,
      "▁추가": 11239,
      "▁용": 11240,
      "▁패": 11241,
      "▁일본": 11242,
      "▁이야": 11243,
      "▁새로운": 11244,
      "▁넘": 11245,
      "▁해당": 11246,
      "화를": 11247,
      "▁전문": 11248,
      "▁m": 11249,
      "▁뒤": 11250,
      "▁길": 11251,
      "▁삼": 11252,
      "장은": 11253,
      "이터": 11254,
      "▁포함": 11255,
      "상을": 11256,
      ".com": 11257,
      "▁있었": 11258,
      "▁결과": 11259,
      "된다.": 11260,
      "▁설명": 11261,
      "▁이후": 11262,
      "기는": 11263,
      "▁쓰": 11264,
      "들과": 11265,
      "ri": 11266,
      "했습니다.": 11267,
      "▁테": 11268,
      "으면": 11269,
      "▁위치": 11270,
      "다\"": 11271,
      "가는": 11272,
      "▁블": 11273,
      "▁그러나": 11274,
      "▁했다.": 11275,
      "em": 11276,
      "▁기능": 11277,
      "▁사이": 11278,
      "▁귀": 11279,
      "▁상황": 11280,
      "하면서": 11281,
      "▁허": 11282,
      "▁특히": 11283,
      "통령": 11284,
      "▁천": 11285,
      "▁15": 11286,
      "자인": 11287,
      "▁게임": 11288,
      "▁만들어": 11289,
      "리가": 11290,
      "이고": 11291,
      "되고": 11292,
      "성이": 11293,
      "▁O": 11294,
      "▁숙": 11295,
      "▁빠": 11296,
      "위원": 11297,
      "▁모습": 11298,
      "▁있도록": 11299,
      "▁프로그램": 11300,
      "이스": 11301,
      "▁d": 11302,
      "▁이유": 11303,
      "▁2.": 11304,
      "니까": 11305,
      "ple": 11306,
      "ol": 11307,
      "있는": 11308,
      "▁논": 11309,
      "▁관리": 11310,
      "▁존": 11311,
      "▁.": 11312,
      "▁of": 11313,
      "다”고": 11314,
      "ot": 11315,
      "▁국내": 11316,
      "▁30": 11317,
      "작권": 11318,
      "뉴스": 11319,
      "▁끝": 11320,
      "▁사랑": 11321,
      "▁침": 11322,
      "▁대통령": 11323,
      "라이": 11324,
      "가지": 11325,
      "랜드": 11326,
      "▁너무": 11327,
      "▁야": 11328,
      "▁국가": 11329,
      "▁직접": 11330,
      "▁활동": 11331,
      "▁승": 11332,
      "▁첫": 11333,
      "▁백": 11334,
      "▁U": 11335,
      "▁a": 11336,
      "!!": 11337,
      "장이": 11338,
      "▁경제": 11339,
      "세요": 11340,
      "다가": 11341,
      "▁등의": 11342,
      "ame": 11343,
      "ww": 11344,
      "▁그것": 11345,
      "▁부분": 11346,
      "시아": 11347,
      "▁이름": 11348,
      "▁하나님": 11349,
      "에서도": 11350,
      "자를": 11351,
      "떻게": 11352,
      "라인": 11353,
      "습니다": 11354,
      "사가": 11355,
      "▁설치": 11356,
      "▁군": 11357,
      "▁것입니다.": 11358,
      "▁가격": 11359,
      "▁알려": 11360,
      "▁보고": 11361,
      "▁이러": 11362,
      "식을": 11363,
      "▁맛": 11364,
      "▁참여": 11365,
      "▁최근": 11366,
      "리에": 11367,
      "리스": 11368,
      "▁된다.": 11369,
      "▁의미": 11370,
      "ir": 11371,
      "됐다.": 11372,
      "▁처음": 11373,
      "▁준비": 11374,
      "▁어떻게": 11375,
      "▁구매": 11376,
      "▁인터넷": 11377,
      "▁나타": 11378,
      "▁객": 11379,
      "▁예약": 11380,
      "랍니다.": 11381,
      "▁밝혔": 11382,
      "▁그는": 11383,
      "▁은": 11384,
      "▁게시": 11385,
      "▁동안": 11386,
      "▁자동": 11387,
      "▁적용": 11388,
      "▁쉽": 11389,
      "0년": 11390,
      "-1": 11391,
      "▁시스템": 11392,
      "▁판매": 11393,
      "▁실제": 11394,
      "라도": 11395,
      "사의": 11396,
      "▁키": 11397,
      "▁잡": 11398,
      "▁구성": 11399,
      "▁*": 11400,
      "사는": 11401,
      "▁아래": 11402,
      "▁축": 11403,
      "▁휴": 11404,
      "므로": 11405,
      "▁홍": 11406,
      "회의": 11407,
      "▁농": 11408,
      "▁되는": 11409,
      "▁이러한": 11410,
      "▁환경": 11411,
      "▁일반": 11412,
      "▁않은": 11413,
      "▁찾아": 11414,
      "▁없이": 11415,
      "ec": 11416,
      "▁이를": 11417,
      "도를": 11418,
      "▁in": 11419,
      "▁갈": 11420,
      "▁오늘": 11421,
      "▁최고": 11422,
      "▁말했다.": 11423,
      "리아": 11424,
      "▁문화": 11425,
      "▁북한": 11426,
      "으며": 11427,
      "▁V": 11428,
      "▁18": 11429,
      "▁무엇": 11430,
      "죠.": 11431,
      "하거나": 11432,
      "▁면": 11433,
      "립니다.": 11434,
      "는데,": 11435,
      "하였": 11436,
      "▁여성": 11437,
      "name": 11438,
      "▁계획": 11439,
      "ow": 11440,
      "교육": 11441,
      "인이": 11442,
      "주는": 11443,
      "▁영화": 11444,
      "▁등록": 11445,
      "la": 11446,
      "▁정책": 11447,
      "▁같이": 11448,
      "▁보여": 11449,
      "▁병": 11450,
      "▁아닌": 11451,
      "▁학생": 11452,
      "▁즉": 11453,
      "ample": 11454,
      "▁물론": 11455,
      "▁자신의": 11456,
      "▁수도": 11457,
      "▁바랍니다.": 11458,
      "▁사항": 11459,
      "▁책임": 11460,
      "▁되어": 11461,
      "어나": 11462,
      "▁막": 11463,
      "▁않고": 11464,
      "▁저작권": 11465,
      "▁...": 11466,
      "▁전체": 11467,
      "▁엄": 11468,
      "▁늘": 11469,
      "example": 11470,
      "시키": 11471,
      "▁기준": 11472,
      "부분": 11473,
      "▁기본": 11474,
      "▁국민": 11475,
      "▁마련": 11476,
      "▁떠": 11477,
      "▁3.": 11478,
      "▁관심": 11479,
      "▁안전": 11480,
      "▁죽": 11481,
      "stname": 11482,
      "▁대상": 11483,
      "@example": 11484,
      "▁가족": 11485,
      "인의": 11486,
      "만원": 11487,
      "▁대학": 11488,
      ")의": 11489,
      "▁돌아": 11490,
      "▁철": 11491,
      "▁몇": 11492,
      "되지": 11493,
      "▁계속": 11494,
      "▁좀": 11495,
      "▁검색": 11496,
      "▁활용": 11497,
      "▁자료": 11498,
      "ation": 11499,
      "▁됩니다.": 11500,
      "▁정말": 11501,
      "▁있다는": 11502,
      "▁머": 11503,
      "▁얻": 11504,
      "▁등이": 11505,
      "어요.": 11506,
      "▁and": 11507,
      "▁더욱": 11508,
      "▁이제": 11509,
      "▁소개": 11510,
      "사업": 11511,
      "▁기록": 11512,
      "▁몸": 11513,
      "▁내가": 11514,
      "▁시장": 11515,
      "인데": 11516,
      "▁측": 11517,
      "했던": 11518,
      "▁밝혔다.": 11519,
      "▁와": 11520,
      "어서": 11521,
      "▁폭": 11522,
      "▁잠": 11523,
      "ㅋㅋ": 11524,
      "▁관한": 11525,
      "▁나는": 11526,
      "ad": 11527,
      "▁예정": 11528,
      "▁페": 11529,
      "▁상태": 11530,
      "▁방문": 11531,
      "▁건강": 11532,
      "▁좋아": 11533,
      "//": 11534,
      "기업": 11535,
      "▁국제": 11536,
      "▁정치": 11537,
      "id": 11538,
      "▁경험": 11539,
      "▁이해": 11540,
      "30": 11541,
      "▁삶": 11542,
      "▁없다.": 11543,
      "하실": 11544,
      "되었": 11545,
      "▁일부": 11546,
      "마트": 11547,
      "으며,": 11548,
      "▁최대": 11549,
      "▁데이터": 11550,
      "▁이렇게": 11551,
      "▁파일": 11552,
      "▁인간": 11553,
      "un": 11554,
      "▁그래서": 11555,
      "▁당신": 11556,
      "시에": 11557,
      "▁효과": 11558,
      "▁디자인": 11559,
      "▁자세": 11560,
      "us": 11561,
      "▁분석": 11562,
      "▁홈": 11563,
      "▁어려": 11564,
      "▁기대": 11565,
      "▁있었다.": 11566,
      "-0": 11567,
      "▁객실": 11568,
      "▁먼": 11569,
      "▁16": 11570,
      "▁편의": 11571,
      "tp": 11572,
      "없이": 11573,
      "▁골": 11574,
[...]
